#include "magic_wand_model_data.h"

// We need to keep the data array aligned on some architectures.
#ifdef __has_attribute
#define HAVE_ATTRIBUTE(x) __has_attribute(x)
#else
#define HAVE_ATTRIBUTE(x) 0
#endif
#if HAVE_ATTRIBUTE(aligned) || (defined(__GNUC__) && !defined(__clang__))
#define DATA_ALIGN_ATTRIBUTE __attribute__((aligned(4)))
#else
#define DATA_ALIGN_ATTRIBUTE
#endif

const unsigned char g_magic_wand_model_data[] DATA_ALIGN_ATTRIBUTE = {
  // Paste the data of the char array in `src/model.cc` here
  0x08, 0x00, 0x00, 0x00, 0x54, 0x46, 0x4c, 0x33, 0x62, 0xff, 0xff, 0xff,
  0x03, 0x00, 0x00, 0x00, 0x10, 0x00, 0x00, 0x00, 0x24, 0x00, 0x00, 0x00,
  0x78, 0x00, 0x00, 0x00, 0x24, 0x00, 0x00, 0x00, 0x05, 0x00, 0x00, 0x00,
  0x78, 0x05, 0x00, 0x00, 0xb0, 0x04, 0x00, 0x00, 0xe0, 0x02, 0x00, 0x00,
  0x60, 0x02, 0x00, 0x00, 0x54, 0x01, 0x00, 0x00, 0x01, 0x00, 0x00, 0x00,
  0x78, 0x00, 0x00, 0x00, 0x13, 0x00, 0x00, 0x00, 0x18, 0x30, 0x00, 0x00,
  0x14, 0x30, 0x00, 0x00, 0x20, 0x2f, 0x00, 0x00, 0xa8, 0x2e, 0x00, 0x00,
  0x3c, 0x2e, 0x00, 0x00, 0xec, 0x11, 0x00, 0x00, 0x98, 0x10, 0x00, 0x00,
  0xbc, 0x0e, 0x00, 0x00, 0x60, 0x06, 0x00, 0x00, 0xfc, 0x05, 0x00, 0x00,
  0x78, 0x05, 0x00, 0x00, 0xec, 0x2f, 0x00, 0x00, 0xe8, 0x2f, 0x00, 0x00,
  0xe4, 0x2f, 0x00, 0x00, 0xe0, 0x2f, 0x00, 0x00, 0xdc, 0x2f, 0x00, 0x00,
  0xd8, 0x2f, 0x00, 0x00, 0xd4, 0x2f, 0x00, 0x00, 0xd0, 0x2f, 0x00, 0x00,
  0x0f, 0x00, 0x00, 0x00, 0x4d, 0x4c, 0x49, 0x52, 0x20, 0x43, 0x6f, 0x6e,
  0x76, 0x65, 0x72, 0x74, 0x65, 0x64, 0x2e, 0x00, 0x00, 0x00, 0x0e, 0x00,
  0x18, 0x00, 0x04, 0x00, 0x08, 0x00, 0x0c, 0x00, 0x10, 0x00, 0x14, 0x00,
  0x0e, 0x00, 0x00, 0x00, 0x14, 0x00, 0x00, 0x00, 0x5c, 0x00, 0x00, 0x00,
  0x60, 0x00, 0x00, 0x00, 0x64, 0x00, 0x00, 0x00, 0x84, 0x00, 0x00, 0x00,
  0x12, 0x00, 0x00, 0x00, 0x48, 0x2f, 0x00, 0x00, 0xe4, 0x2e, 0x00, 0x00,
  0x3c, 0x2e, 0x00, 0x00, 0xd8, 0x2d, 0x00, 0x00, 0x70, 0x2d, 0x00, 0x00,
  0x1c, 0x11, 0x00, 0x00, 0xc0, 0x0f, 0x00, 0x00, 0xe4, 0x0d, 0x00, 0x00,
  0xa0, 0x05, 0x00, 0x00, 0x3c, 0x05, 0x00, 0x00, 0xb0, 0x04, 0x00, 0x00,
  0xe8, 0x03, 0x00, 0x00, 0x38, 0x03, 0x00, 0x00, 0xa4, 0x02, 0x00, 0x00,
  0x10, 0x02, 0x00, 0x00, 0x90, 0x01, 0x00, 0x00, 0xfc, 0x00, 0x00, 0x00,
  0x80, 0x00, 0x00, 0x00, 0x01, 0x00, 0x00, 0x00, 0x00, 0x00, 0x00, 0x00,
  0x01, 0x00, 0x00, 0x00, 0x11, 0x00, 0x00, 0x00, 0x08, 0x00, 0x00, 0x00,
  0x1c, 0x04, 0x00, 0x00, 0x58, 0x03, 0x00, 0x00, 0xc8, 0x02, 0x00, 0x00,
  0x24, 0x02, 0x00, 0x00, 0xac, 0x01, 0x00, 0x00, 0x10, 0x01, 0x00, 0x00,
  0x94, 0x00, 0x00, 0x00, 0x10, 0x00, 0x00, 0x00, 0x04, 0x00, 0x00, 0x00,
  0x6d, 0x61, 0x69, 0x6e, 0x00, 0x00, 0x00, 0x00, 0x8e, 0xff, 0xff, 0xff,
  0x00, 0x00, 0x00, 0x09, 0x04, 0x00, 0x00, 0x00, 0x1c, 0x00, 0x00, 0x00,
  0x10, 0x00, 0x00, 0x00, 0x04, 0x00, 0x00, 0x00, 0x0a, 0xd2, 0xff, 0xff,
  0x00, 0x00, 0x80, 0x3f, 0x01, 0x00, 0x00, 0x00, 0x11, 0x00, 0x00, 0x00,
  0x01, 0x00, 0x00, 0x00, 0x10, 0x00, 0x00, 0x00, 0xf6, 0xfb, 0xff, 0xff,
  0x00, 0x00, 0x00, 0x19, 0x01, 0x00, 0x00, 0x00, 0x8a, 0xd1, 0xff, 0xff,
  0x10, 0x00, 0x00, 0x00, 0x12, 0x00, 0x00, 0x00, 0x14, 0x00, 0x00, 0x00,
  0x20, 0x00, 0x00, 0x00, 0x02, 0x00, 0x00, 0x00, 0x01, 0x00, 0x00, 0x00,
  0x04, 0x00, 0x00, 0x00, 0x08, 0x00, 0x00, 0x00, 0x49, 0x64, 0x65, 0x6e,
  0x74, 0x69, 0x74, 0x79, 0x00, 0x00, 0x00, 0x00, 0xc4, 0xd1, 0xff, 0xff,
  0x00, 0x00, 0x0e, 0x00, 0x18, 0x00, 0x08, 0x00, 0x0c, 0x00, 0x10, 0x00,
  0x07, 0x00, 0x14, 0x00, 0x0e, 0x00, 0x00, 0x00, 0x00, 0x00, 0x00, 0x08,
  0x03, 0x00, 0x00, 0x00, 0x18, 0x00, 0x00, 0x00, 0x0c, 0x00, 0x00, 0x00,
  0x04, 0x00, 0x00, 0x00, 0x98, 0xd1, 0xff, 0xff, 0x01, 0x00, 0x00, 0x00,
  0x10, 0x00, 0x00, 0x00, 0x03, 0x00, 0x00, 0x00, 0x0f, 0x00, 0x00, 0x00,
  0x05, 0x00, 0x00, 0x00, 0x02, 0x00, 0x00, 0x00, 0x02, 0xd2, 0xff, 0xff,
  0x10, 0x00, 0x00, 0x00, 0x11, 0x00, 0x00, 0x00, 0x14, 0x00, 0x00, 0x00,
  0x30, 0x00, 0x00, 0x00, 0x02, 0x00, 0x00, 0x00, 0x01, 0x00, 0x00, 0x00,
  0x04, 0x00, 0x00, 0x00, 0x1a, 0x00, 0x00, 0x00, 0x73, 0x65, 0x71, 0x75,
  0x65, 0x6e, 0x74, 0x69, 0x61, 0x6c, 0x2f, 0x64, 0x65, 0x6e, 0x73, 0x65,
  0x5f, 0x31, 0x2f, 0x42, 0x69, 0x61, 0x73, 0x41, 0x64, 0x64, 0x00, 0x00,
  0xf4, 0xd1, 0xff, 0xff, 0xd6, 0xfd, 0xff, 0xff, 0x00, 0x00, 0x00, 0x08,
  0x03, 0x00, 0x00, 0x00, 0x24, 0x00, 0x00, 0x00, 0x18, 0x00, 0x00, 0x00,
  0x0c, 0x00, 0x00, 0x00, 0x00, 0x00, 0x06, 0x00, 0x08, 0x00, 0x07, 0x00,
  0x06, 0x00, 0x00, 0x00, 0x00, 0x00, 0x00, 0x01, 0x01, 0x00, 0x00, 0x00,
  0x0f, 0x00, 0x00, 0x00, 0x03, 0x00, 0x00, 0x00, 0x0e, 0x00, 0x00, 0x00,
  0x04, 0x00, 0x00, 0x00, 0x01, 0x00, 0x00, 0x00, 0xfe, 0xfc, 0xff, 0xff,
  0x00, 0x00, 0x00, 0x09, 0x01, 0x00, 0x00, 0x00, 0x92, 0xd2, 0xff, 0xff,
  0x10, 0x00, 0x00, 0x00, 0x10, 0x00, 0x00, 0x00, 0x14, 0x00, 0x00, 0x00,
  0x2c, 0x00, 0x00, 0x00, 0x02, 0x00, 0x00, 0x00, 0x01, 0x00, 0x00, 0x00,
  0x10, 0x00, 0x00, 0x00, 0x15, 0x00, 0x00, 0x00, 0x73, 0x65, 0x71, 0x75,
  0x65, 0x6e, 0x74, 0x69, 0x61, 0x6c, 0x2f, 0x64, 0x65, 0x6e, 0x73, 0x65,
  0x2f, 0x52, 0x65, 0x6c, 0x75, 0x00, 0x00, 0x00, 0xd8, 0xd2, 0xff, 0xff,
  0x00, 0x00, 0x0a, 0x00, 0x10, 0x00, 0x04, 0x00, 0x08, 0x00, 0x0c, 0x00,
  0x0a, 0x00, 0x00, 0x00, 0x02, 0x00, 0x00, 0x00, 0x10, 0x00, 0x00, 0x00,
  0x04, 0x00, 0x00, 0x00, 0x01, 0x00, 0x00, 0x00, 0x0e, 0x00, 0x00, 0x00,
  0x02, 0x00, 0x00, 0x00, 0x0d, 0x00, 0x00, 0x00, 0x03, 0x00, 0x00, 0x00,
  0x7a, 0xfd, 0xff, 0xff, 0x00, 0x00, 0x00, 0x16, 0x01, 0x00, 0x00, 0x00,
  0x0e, 0xd3, 0xff, 0xff, 0x10, 0x00, 0x00, 0x00, 0x0f, 0x00, 0x00, 0x00,
  0x14, 0x00, 0x00, 0x00, 0x30, 0x00, 0x00, 0x00, 0x02, 0x00, 0x00, 0x00,
  0x01, 0x00, 0x00, 0x00, 0x70, 0x00, 0x00, 0x00, 0x1a, 0x00, 0x00, 0x00,
  0x73, 0x65, 0x71, 0x75, 0x65, 0x6e, 0x74, 0x69, 0x61, 0x6c, 0x2f, 0x66,
  0x6c, 0x61, 0x74, 0x74, 0x65, 0x6e, 0x2f, 0x52, 0x65, 0x73, 0x68, 0x61,
  0x70, 0x65, 0x00, 0x00, 0x00, 0xd3, 0xff, 0xff, 0xe2, 0xfe, 0xff, 0xff,
  0x00, 0x00, 0x00, 0x05, 0x01, 0x00, 0x00, 0x00, 0x38, 0x00, 0x00, 0x00,
  0x2c, 0x00, 0x00, 0x00, 0x14, 0x00, 0x00, 0x00, 0x00, 0x00, 0x0e, 0x00,
  0x14, 0x00, 0x00, 0x00, 0x10, 0x00, 0x0c, 0x00, 0x08, 0x00, 0x04, 0x00,
  0x0e, 0x00, 0x00, 0x00, 0x03, 0x00, 0x00, 0x00, 0x01, 0x00, 0x00, 0x00,
  0x03, 0x00, 0x00, 0x00, 0x01, 0x00, 0x00, 0x00, 0x01, 0x00, 0x00, 0x00,
  0x0d, 0x00, 0x00, 0x00, 0x01, 0x00, 0x00, 0x00, 0x0c, 0x00, 0x00, 0x00,
  0x9e, 0xd3, 0xff, 0xff, 0x10, 0x00, 0x00, 0x00, 0x0e, 0x00, 0x00, 0x00,
  0x1c, 0x00, 0x00, 0x00, 0x40, 0x00, 0x00, 0x00, 0x04, 0x00, 0x00, 0x00,
  0x01, 0x00, 0x00, 0x00, 0x07, 0x00, 0x00, 0x00, 0x01, 0x00, 0x00, 0x00,
  0x10, 0x00, 0x00, 0x00, 0x22, 0x00, 0x00, 0x00, 0x73, 0x65, 0x71, 0x75,
  0x65, 0x6e, 0x74, 0x69, 0x61, 0x6c, 0x2f, 0x6d, 0x61, 0x78, 0x5f, 0x70,
  0x6f, 0x6f, 0x6c, 0x69, 0x6e, 0x67, 0x32, 0x64, 0x5f, 0x31, 0x2f, 0x4d,
  0x61, 0x78, 0x50, 0x6f, 0x6f, 0x6c, 0x00, 0x00, 0xa0, 0xd3, 0xff, 0xff,
  0xc2, 0xfe, 0xff, 0xff, 0x00, 0x00, 0x00, 0x01, 0x24, 0x00, 0x00, 0x00,
  0x18, 0x00, 0x00, 0x00, 0x04, 0x00, 0x00, 0x00, 0xb4, 0xfe, 0xff, 0xff,
  0x01, 0x00, 0x00, 0x00, 0x01, 0x00, 0x00, 0x00, 0x00, 0x00, 0x00, 0x01,
  0x01, 0x00, 0x00, 0x00, 0x0c, 0x00, 0x00, 0x00, 0x03, 0x00, 0x00, 0x00,
  0x0b, 0x00, 0x00, 0x00, 0x07, 0x00, 0x00, 0x00, 0x09, 0x00, 0x00, 0x00,
  0x2e, 0xd4, 0xff, 0xff, 0x10, 0x00, 0x00, 0x00, 0x0d, 0x00, 0x00, 0x00,
  0x1c, 0x00, 0x00, 0x00, 0x2c, 0x00, 0x00, 0x00, 0x04, 0x00, 0x00, 0x00,
  0x01, 0x00, 0x00, 0x00, 0x15, 0x00, 0x00, 0x00, 0x01, 0x00, 0x00, 0x00,
  0x10, 0x00, 0x00, 0x00, 0x0c, 0x00, 0x00, 0x00, 0x74, 0x66, 0x6c, 0x2e,
  0x63, 0x6f, 0x6e, 0x76, 0x5f, 0x32, 0x64, 0x31, 0x00, 0x00, 0x00, 0x00,
  0x74, 0xd4, 0xff, 0xff, 0x00, 0x00, 0x0e, 0x00, 0x1a, 0x00, 0x08, 0x00,
  0x0c, 0x00, 0x10, 0x00, 0x07, 0x00, 0x14, 0x00, 0x0e, 0x00, 0x00, 0x00,
  0x00, 0x00, 0x00, 0x05, 0x01, 0x00, 0x00, 0x00, 0x3c, 0x00, 0x00, 0x00,
  0x30, 0x00, 0x00, 0x00, 0x14, 0x00, 0x00, 0x00, 0x00, 0x00, 0x0e, 0x00,
  0x18, 0x00, 0x17, 0x00, 0x10, 0x00, 0x0c, 0x00, 0x08, 0x00, 0x04, 0x00,
  0x0e, 0x00, 0x00, 0x00, 0x03, 0x00, 0x00, 0x00, 0x03, 0x00, 0x00, 0x00,
  0x03, 0x00, 0x00, 0x00, 0x03, 0x00, 0x00, 0x00, 0x00, 0x00, 0x00, 0x01,
  0x01, 0x00, 0x00, 0x00, 0x0b, 0x00, 0x00, 0x00, 0x01, 0x00, 0x00, 0x00,
  0x0a, 0x00, 0x00, 0x00, 0x46, 0xff, 0xff, 0xff, 0x00, 0x00, 0x00, 0x11,
  0x01, 0x00, 0x00, 0x00, 0xda, 0xd4, 0xff, 0xff, 0x10, 0x00, 0x00, 0x00,
  0x0c, 0x00, 0x00, 0x00, 0x1c, 0x00, 0x00, 0x00, 0x40, 0x00, 0x00, 0x00,
  0x04, 0x00, 0x00, 0x00, 0x01, 0x00, 0x00, 0x00, 0x15, 0x00, 0x00, 0x00,
  0x01, 0x00, 0x00, 0x00, 0x08, 0x00, 0x00, 0x00, 0x20, 0x00, 0x00, 0x00,
  0x73, 0x65, 0x71, 0x75, 0x65, 0x6e, 0x74, 0x69, 0x61, 0x6c, 0x2f, 0x6d,
  0x61, 0x78, 0x5f, 0x70, 0x6f, 0x6f, 0x6c, 0x69, 0x6e, 0x67, 0x32, 0x64,
  0x2f, 0x4d, 0x61, 0x78, 0x50, 0x6f, 0x6f, 0x6c, 0x00, 0x00, 0x00, 0x00,
  0x34, 0xd5, 0xff, 0xff, 0x00, 0x00, 0x0e, 0x00, 0x14, 0x00, 0x00, 0x00,
  0x08, 0x00, 0x0c, 0x00, 0x07, 0x00, 0x10, 0x00, 0x0e, 0x00, 0x00, 0x00,
  0x00, 0x00, 0x00, 0x01, 0x30, 0x00, 0x00, 0x00, 0x24, 0x00, 0x00, 0x00,
  0x10, 0x00, 0x00, 0x00, 0x0c, 0x00, 0x10, 0x00, 0x00, 0x00, 0x04, 0x00,
  0x08, 0x00, 0x0f, 0x00, 0x0c, 0x00, 0x00, 0x00, 0x01, 0x00, 0x00, 0x00,
  0x01, 0x00, 0x00, 0x00, 0x00, 0x00, 0x00, 0x01, 0x01, 0x00, 0x00, 0x00,
  0x0a, 0x00, 0x00, 0x00, 0x03, 0x00, 0x00, 0x00, 0x00, 0x00, 0x00, 0x00,
  0x06, 0x00, 0x00, 0x00, 0x08, 0x00, 0x00, 0x00, 0x00, 0x00, 0x0a, 0x00,
  0x0c, 0x00, 0x07, 0x00, 0x00, 0x00, 0x08, 0x00, 0x0a, 0x00, 0x00, 0x00,
  0x00, 0x00, 0x00, 0x03, 0x01, 0x00, 0x00, 0x00, 0x9e, 0xd5, 0xff, 0xff,
  0x10, 0x00, 0x00, 0x00, 0x0b, 0x00, 0x00, 0x00, 0x1c, 0x00, 0x00, 0x00,
  0x28, 0x00, 0x00, 0x00, 0x04, 0x00, 0x00, 0x00, 0x01, 0x00, 0x00, 0x00,
  0x40, 0x00, 0x00, 0x00, 0x03, 0x00, 0x00, 0x00, 0x08, 0x00, 0x00, 0x00,
  0x0b, 0x00, 0x00, 0x00, 0x74, 0x66, 0x6c, 0x2e, 0x63, 0x6f, 0x6e, 0x76,
  0x5f, 0x32, 0x64, 0x00, 0x88, 0xd5, 0xff, 0xff, 0x7e, 0xd6, 0xff, 0xff,
  0x04, 0x00, 0x00, 0x00, 0x40, 0x00, 0x00, 0x00, 0x9d, 0x2f, 0x0e, 0xc0,
  0x80, 0x25, 0x89, 0xbd, 0x0b, 0x44, 0x94, 0xbe, 0x08, 0xc6, 0x5b, 0xbe,
  0x71, 0x97, 0x86, 0xbf, 0xe2, 0xb5, 0xe7, 0x3f, 0x71, 0x91, 0x1e, 0x40,
  0xd0, 0x3a, 0x3b, 0xbf, 0xf6, 0xf5, 0xcc, 0x40, 0xbb, 0xcb, 0xdb, 0xbf,
  0x1e, 0x24, 0x08, 0xbf, 0xa9, 0x83, 0x1d, 0xc0, 0x8b, 0xe0, 0x45, 0xbe,
  0x2f, 0x7b, 0xa4, 0xbf, 0xbc, 0x65, 0xc5, 0xbf, 0x4f, 0x6f, 0x4e, 0xbf,
  0x26, 0xd6, 0xff, 0xff, 0x10, 0x00, 0x00, 0x00, 0x0a, 0x00, 0x00, 0x00,
  0x10, 0x00, 0x00, 0x00, 0x20, 0x00, 0x00, 0x00, 0x01, 0x00, 0x00, 0x00,
  0x10, 0x00, 0x00, 0x00, 0x0d, 0x00, 0x00, 0x00, 0x73, 0x74, 0x64, 0x2e,
  0x63, 0x6f, 0x6e, 0x73, 0x74, 0x61, 0x6e, 0x74, 0x31, 0x00, 0x00, 0x00,
  0x08, 0xd6, 0xff, 0xff, 0xfe, 0xd6, 0xff, 0xff, 0x04, 0x00, 0x00, 0x00,
  0x20, 0x00, 0x00, 0x00, 0xf9, 0x47, 0xe7, 0xbf, 0xd3, 0xbe, 0x66, 0xbd,
  0x79, 0x89, 0x46, 0xbf, 0x2c, 0xb1, 0xb4, 0xbc, 0x4b, 0xc7, 0xb2, 0xbd,
  0x5f, 0x3a, 0x19, 0xc0, 0x5f, 0x5e, 0x8f, 0xbf, 0x76, 0x2d, 0x8a, 0xbf,
  0x86, 0xd6, 0xff, 0xff, 0x10, 0x00, 0x00, 0x00, 0x09, 0x00, 0x00, 0x00,
  0x10, 0x00, 0x00, 0x00, 0x20, 0x00, 0x00, 0x00, 0x01, 0x00, 0x00, 0x00,
  0x08, 0x00, 0x00, 0x00, 0x0c, 0x00, 0x00, 0x00, 0x73, 0x74, 0x64, 0x2e,
  0x63, 0x6f, 0x6e, 0x73, 0x74, 0x61, 0x6e, 0x74, 0x00, 0x00, 0x00, 0x00,
  0x68, 0xd6, 0xff, 0xff, 0x5e, 0xd7, 0xff, 0xff, 0x04, 0x00, 0x00, 0x00,
  0x00, 0x08, 0x00, 0x00, 0x24, 0x15, 0x09, 0xbf, 0xfc, 0xbd, 0x56, 0xbd,
  0x46, 0xa4, 0xd6, 0x3e, 0x0c, 0xf1, 0xd7, 0x3d, 0x24, 0x2b, 0xa9, 0xbe,
  0xb2, 0xd3, 0xa7, 0x3d, 0xfb, 0x9e, 0x89, 0x3e, 0x60, 0x5d, 0x00, 0xbd,
  0xe7, 0xd4, 0xd3, 0xbe, 0xf0, 0x2c, 0x94, 0x3e, 0xec, 0x24, 0xf1, 0xbc,
  0x58, 0xad, 0xf1, 0xbc, 0xec, 0x01, 0x61, 0xbe, 0xf1, 0x6d, 0xc6, 0xbe,
  0x32, 0x41, 0x7c, 0xbd, 0xdf, 0x7e, 0xcb, 0xbd, 0x7a, 0xe7, 0x67, 0x3d,
  0x85, 0x1a, 0x7b, 0x3d, 0x99, 0xcf, 0xc0, 0xbe, 0x6c, 0xb2, 0x31, 0x3e,
  0x08, 0x78, 0xd3, 0x3b, 0x9b, 0xce, 0xd3, 0x3b, 0xfa, 0x64, 0xc2, 0xbd,
  0xbc, 0x35, 0x08, 0xbb, 0x65, 0xb6, 0x30, 0x3c, 0x30, 0x59, 0x8a, 0xbe,
  0xde, 0x8b, 0xd7, 0xbe, 0xb1, 0x21, 0xb4, 0xbe, 0x84, 0x5f, 0x81, 0x3e,
  0xcb, 0x07, 0xc0, 0xbb, 0xc6, 0xaa, 0x1c, 0xbe, 0x24, 0xda, 0xd6, 0xbc,
  0x19, 0xa7, 0xaa, 0xbd, 0x9a, 0x27, 0xc9, 0xbe, 0xc8, 0x5e, 0xbe, 0xbd,
  0xc2, 0x06, 0x41, 0xbe, 0x57, 0x1a, 0xb8, 0xbe, 0x0e, 0x90, 0x02, 0xbf,
  0x06, 0xaa, 0x80, 0xbb, 0x41, 0xc0, 0xad, 0xbd, 0x27, 0xb6, 0xad, 0xbd,
  0x1f, 0x20, 0xcd, 0xbd, 0x4b, 0x45, 0x34, 0xbe, 0xcd, 0x3a, 0x45, 0xbc,
  0xb4, 0xfd, 0xf2, 0x3d, 0xb9, 0x0d, 0x61, 0xbd, 0x66, 0x94, 0xe7, 0x3d,
  0x0c, 0x7d, 0xd3, 0xbd, 0x14, 0x21, 0x56, 0x3e, 0x68, 0xad, 0x82, 0x3e,
  0x39, 0x58, 0x0d, 0xbc, 0xde, 0x4e, 0xde, 0x3d, 0x21, 0x1f, 0x5b, 0x3d,
  0x62, 0x3a, 0x6c, 0x3f, 0xd6, 0xbb, 0x32, 0xbc, 0x87, 0x90, 0xb6, 0xbd,
  0x39, 0xb8, 0x4b, 0x3d, 0x11, 0x40, 0x8f, 0xbb, 0x5a, 0x80, 0x3a, 0x3e,
  0xcd, 0xcb, 0xd1, 0xbd, 0x82, 0x73, 0x91, 0xbd, 0xa5, 0xfc, 0x14, 0x3f,
  0x0d, 0x68, 0x01, 0xbe, 0x65, 0xca, 0x9d, 0xbd, 0x7a, 0xaa, 0xd4, 0xbe,
  0xc7, 0x7a, 0x52, 0x3e, 0x88, 0x44, 0x18, 0xbd, 0x51, 0x7c, 0xd9, 0x3d,
  0xac, 0xbd, 0x2e, 0x3d, 0xff, 0xb1, 0xd8, 0x3d, 0x52, 0x55, 0x9f, 0x3d,
  0xc7, 0xcd, 0x7a, 0xbe, 0x37, 0x6f, 0xd4, 0xbe, 0x52, 0x5d, 0x2d, 0x3e,
  0x72, 0xd3, 0xc8, 0xbd, 0xbc, 0x7e, 0x8f, 0x3e, 0x62, 0xa1, 0x80, 0x3d,
  0x03, 0x47, 0xe8, 0x3c, 0x86, 0xcc, 0xa9, 0xbd, 0x21, 0xe9, 0x66, 0xbe,
  0x5f, 0x24, 0xad, 0xbe, 0xc4, 0xd0, 0x72, 0x3e, 0x2d, 0x70, 0xf3, 0xbd,
  0x32, 0x41, 0x14, 0x3d, 0x9b, 0x50, 0xa8, 0x3d, 0xe4, 0xfc, 0xe0, 0x3d,
  0xe6, 0xae, 0x92, 0xbb, 0xfd, 0xee, 0x41, 0xbe, 0x17, 0x44, 0x71, 0xbe,
  0xd5, 0xfd, 0x2d, 0x3e, 0xa7, 0xc2, 0x15, 0x3f, 0x41, 0xed, 0x44, 0x3e,
  0xd9, 0x13, 0xb7, 0x3d, 0x7b, 0x99, 0x14, 0x3e, 0xba, 0xd9, 0xac, 0x3c,
  0x39, 0x54, 0xe0, 0xbd, 0x19, 0xb4, 0x8c, 0xbd, 0xf1, 0x0e, 0xd8, 0xbd,
  0xbe, 0xe9, 0xec, 0x3c, 0x1c, 0xd1, 0x64, 0xbe, 0xb7, 0xd1, 0xa8, 0x3d,
  0xd9, 0x34, 0xb5, 0xbd, 0x91, 0xc8, 0xda, 0xbd, 0xae, 0x9c, 0x02, 0xbe,
  0xc1, 0xf8, 0x0b, 0xbd, 0x27, 0xb2, 0x3a, 0xbe, 0xff, 0x9a, 0x95, 0xbd,
  0xe2, 0x66, 0x17, 0xbe, 0xd5, 0x5a, 0xd5, 0xbc, 0x0c, 0xa0, 0xe5, 0xbd,
  0x61, 0x09, 0x2f, 0xbe, 0x56, 0x11, 0xe7, 0xbd, 0x44, 0xf7, 0x90, 0xbe,
  0x73, 0x89, 0x72, 0xbd, 0xed, 0x39, 0xac, 0xbd, 0x4f, 0x00, 0xfc, 0xbd,
  0x8a, 0xb1, 0xab, 0xbd, 0xca, 0x4d, 0x1f, 0x3e, 0xa2, 0xfb, 0x81, 0x3d,
  0x54, 0x17, 0x81, 0xbe, 0x07, 0x27, 0x7b, 0x3d, 0x7d, 0xf9, 0x4e, 0xbe,
  0x50, 0x66, 0x6a, 0xbd, 0x24, 0x7c, 0x73, 0xbe, 0x1b, 0x18, 0xc6, 0x3b,
  0x1c, 0xcd, 0xce, 0xbc, 0x71, 0xc3, 0x7b, 0xbd, 0xb0, 0xd7, 0x4f, 0xbe,
  0x2c, 0xa2, 0xdd, 0xbe, 0xc2, 0x78, 0x57, 0x3e, 0xfe, 0x36, 0x07, 0x3f,
  0x07, 0xe8, 0x58, 0x3d, 0xe9, 0x49, 0xa1, 0xbe, 0xcf, 0x55, 0x01, 0xbe,
  0x9a, 0xa0, 0x52, 0x3e, 0x70, 0x38, 0x30, 0xbd, 0xc1, 0xd9, 0x4f, 0xbe,
  0x6c, 0x76, 0x30, 0xbe, 0x3f, 0x3a, 0x42, 0xbe, 0x3f, 0x23, 0xfb, 0xbd,
  0xe2, 0x56, 0xd4, 0xbd, 0x56, 0x2e, 0x14, 0xbe, 0x69, 0x94, 0x9e, 0xbc,
  0xe0, 0xe3, 0xc3, 0xbc, 0x97, 0xfc, 0xbb, 0xbd, 0x5a, 0xc3, 0xb7, 0xbe,
  0x52, 0xee, 0x48, 0xbe, 0x05, 0x2d, 0x68, 0xbe, 0x65, 0x73, 0xe9, 0x3d,
  0x12, 0xe1, 0xa3, 0x3e, 0xbc, 0x79, 0x99, 0xbc, 0xa8, 0xb3, 0x00, 0x3d,
  0x51, 0x5d, 0xee, 0xbd, 0xe5, 0x91, 0x7e, 0x3e, 0xcb, 0x32, 0x0e, 0x3c,
  0x4d, 0x52, 0x3e, 0xbe, 0x03, 0x14, 0x97, 0x3d, 0xe6, 0x1c, 0xf6, 0x3e,
  0x1f, 0xfa, 0x1d, 0x3c, 0xb4, 0x1e, 0x8c, 0x3d, 0x2d, 0xf4, 0x0b, 0x3c,
  0xcb, 0xc2, 0x82, 0xbe, 0x5c, 0xe6, 0xa1, 0xbc, 0x88, 0xec, 0x50, 0x3e,
  0x6c, 0xd8, 0x60, 0x3e, 0xe4, 0xbc, 0x2f, 0x3e, 0x57, 0xeb, 0x0e, 0xbe,
  0xe5, 0x22, 0x33, 0xbd, 0xe6, 0xaf, 0xa3, 0xbc, 0x96, 0x65, 0x1b, 0x3f,
  0x8f, 0x93, 0x1e, 0xbd, 0x85, 0x12, 0x6e, 0xbd, 0x29, 0x42, 0x1a, 0xbe,
  0x16, 0x33, 0x2a, 0xbc, 0xe9, 0x35, 0x86, 0xbe, 0x1d, 0xd9, 0xe5, 0xbc,
  0x7a, 0x7b, 0x70, 0xbc, 0x75, 0x83, 0x54, 0xbe, 0xc3, 0x19, 0x28, 0x3e,
  0xd6, 0xc2, 0xac, 0x3d, 0x24, 0x92, 0x19, 0xbe, 0x7a, 0x11, 0x35, 0x3e,
  0x51, 0xb6, 0xa0, 0xbe, 0xb3, 0xf2, 0x22, 0xbb, 0xdd, 0xfa, 0x3f, 0xbd,
  0x47, 0x9d, 0xfe, 0xbd, 0x32, 0x7d, 0x56, 0xbd, 0xee, 0xd7, 0xae, 0xbd,
  0x21, 0x85, 0xa1, 0xbd, 0x08, 0x1e, 0x31, 0xbe, 0x50, 0xfe, 0x81, 0xbe,
  0x7d, 0xbd, 0x2c, 0x3d, 0x0f, 0x03, 0x68, 0xbe, 0x83, 0x75, 0x0c, 0xbf,
  0xf1, 0xa9, 0xb5, 0x3b, 0x51, 0x0b, 0xc7, 0x3d, 0x8d, 0x2b, 0xa9, 0xbf,
  0x69, 0x1d, 0x0e, 0x3e, 0xa9, 0x21, 0xaf, 0xbc, 0x08, 0x82, 0x98, 0x3c,
  0x53, 0x5d, 0x1e, 0xbd, 0x72, 0x20, 0x1d, 0xbf, 0x1d, 0x65, 0x2f, 0x3d,
  0x53, 0xe9, 0x82, 0xbe, 0x03, 0xfd, 0xa6, 0xbf, 0xa5, 0x2a, 0x56, 0xbd,
  0x27, 0x7f, 0x99, 0x3c, 0x3a, 0xc4, 0xde, 0xbc, 0x8c, 0x37, 0x13, 0xbe,
  0x9c, 0xc1, 0xe1, 0x3d, 0x88, 0x22, 0x7f, 0x3d, 0xd5, 0x2c, 0x31, 0x3e,
  0x17, 0x10, 0x89, 0xbe, 0xa4, 0x11, 0xb2, 0xbe, 0x13, 0x73, 0x79, 0xbd,
  0xe2, 0x2f, 0x9a, 0x3b, 0xa2, 0xdb, 0x2f, 0xbf, 0x37, 0x0b, 0xc0, 0x3e,
  0x49, 0x4d, 0x85, 0xbe, 0x85, 0x61, 0xeb, 0xbe, 0x66, 0xba, 0xc1, 0xbe,
  0x5c, 0x31, 0xe7, 0xbe, 0xee, 0xb4, 0xc3, 0xbe, 0x18, 0x4f, 0xa4, 0xbe,
  0x52, 0xd6, 0x12, 0x3d, 0x57, 0x4e, 0x7c, 0xbe, 0x9c, 0xfd, 0xa9, 0x3e,
  0xc6, 0xb2, 0x8d, 0xbe, 0x3d, 0xa5, 0xa2, 0xbd, 0x7a, 0x04, 0xa4, 0xbe,
  0xde, 0x61, 0x48, 0xbe, 0xff, 0xe3, 0xaf, 0xbd, 0xba, 0xf3, 0x66, 0x3d,
  0xcc, 0xbc, 0x2f, 0xbf, 0x27, 0xbb, 0x27, 0xbd, 0xa0, 0x3c, 0xb1, 0x3e,
  0xad, 0x01, 0xaa, 0x3c, 0xbc, 0xb5, 0xdc, 0x3d, 0x2f, 0x40, 0x28, 0xbe,
  0x1b, 0x83, 0x0a, 0xbd, 0xe5, 0x18, 0x3f, 0x3d, 0xc2, 0x9c, 0x64, 0xbd,
  0xff, 0x8b, 0x53, 0xbd, 0x0b, 0x53, 0x4f, 0xbe, 0x2a, 0xa3, 0x14, 0xbe,
  0xd5, 0x41, 0x69, 0xbe, 0x83, 0x20, 0x3f, 0xbe, 0xac, 0x73, 0x96, 0xbc,
  0x4b, 0xfe, 0x9d, 0xbc, 0x97, 0xaf, 0xe0, 0xbb, 0xcf, 0x5d, 0x4e, 0xbd,
  0x20, 0x9c, 0x26, 0xbe, 0x7a, 0x59, 0x87, 0xbd, 0xcb, 0x28, 0x10, 0xbe,
  0x9e, 0x3e, 0x1c, 0xbe, 0xc8, 0xe2, 0xa6, 0x3d, 0xc4, 0x55, 0xcc, 0xbc,
  0x6b, 0xfa, 0x84, 0xbe, 0x34, 0xf9, 0xdb, 0xbe, 0x27, 0x76, 0xda, 0xbe,
  0xb5, 0xd2, 0xde, 0xbd, 0x1d, 0x17, 0x07, 0x3e, 0xb6, 0x64, 0x20, 0xbe,
  0x4c, 0xe4, 0x90, 0xbd, 0x05, 0xbe, 0xdf, 0xbd, 0x38, 0x45, 0x0c, 0xbe,
  0x9b, 0x28, 0x4e, 0xbe, 0xda, 0xe0, 0x86, 0xbe, 0x49, 0xcd, 0x03, 0xbe,
  0xee, 0x59, 0xf3, 0xbd, 0xe4, 0x83, 0xb9, 0xbd, 0x1d, 0xbd, 0x7f, 0xbd,
  0x10, 0x67, 0x85, 0xbd, 0x43, 0x06, 0xd1, 0x3d, 0xe1, 0x4a, 0x49, 0xbe,
  0x9d, 0xdd, 0x1e, 0x3e, 0x91, 0xfd, 0xc4, 0xbd, 0x52, 0x6b, 0xb6, 0xbc,
  0x86, 0xcb, 0xae, 0xbd, 0xe0, 0x62, 0x8d, 0xbc, 0x88, 0xa2, 0xd6, 0x3d,
  0xc6, 0xd1, 0xda, 0x3e, 0x36, 0x38, 0xdb, 0xbd, 0x04, 0x0b, 0xd8, 0x3d,
  0xb1, 0xf1, 0x52, 0x3e, 0x88, 0x46, 0x96, 0x3e, 0xb4, 0x84, 0x81, 0x3e,
  0x45, 0xfc, 0x25, 0xba, 0xf3, 0xa3, 0x0b, 0x3c, 0xe5, 0x86, 0x69, 0x3b,
  0xc2, 0x1b, 0x1f, 0xbf, 0xca, 0x5f, 0xfc, 0xbc, 0xc8, 0x15, 0xf3, 0x3d,
  0xd3, 0x6c, 0x1c, 0x3d, 0x30, 0x90, 0xe5, 0xbd, 0x81, 0x8d, 0x11, 0x3c,
  0xc1, 0x2f, 0x33, 0x3d, 0x49, 0x89, 0xeb, 0x3c, 0x14, 0x1a, 0x0e, 0xbf,
  0x3d, 0xd0, 0x94, 0x3b, 0x8f, 0x98, 0x07, 0x3f, 0x7a, 0xa2, 0x8e, 0xbc,
  0xa1, 0x1d, 0xf5, 0x3d, 0xbd, 0x16, 0xe9, 0xbd, 0xae, 0x25, 0xb5, 0xbc,
  0x54, 0x14, 0x05, 0x3e, 0x0d, 0x9a, 0x62, 0xbd, 0x58, 0xfd, 0x15, 0xbe,
  0x12, 0x6d, 0x3b, 0xbe, 0xb3, 0x7b, 0xd2, 0x3e, 0xba, 0x4c, 0xeb, 0xbd,
  0xf2, 0x30, 0x38, 0xbe, 0x03, 0x8f, 0x2a, 0xbe, 0xd7, 0x9d, 0x4e, 0xbe,
  0x82, 0xe6, 0x33, 0x3e, 0x40, 0xcb, 0x7a, 0xbe, 0x87, 0x20, 0x8e, 0xbe,
  0xbe, 0x28, 0x7a, 0x3e, 0x86, 0xdf, 0x40, 0xbe, 0x4a, 0x15, 0x46, 0xbe,
  0x4a, 0x21, 0x05, 0xbe, 0x4e, 0x7a, 0x4f, 0x3e, 0x8a, 0x23, 0x3f, 0xbd,
  0xee, 0xa0, 0x12, 0x3e, 0x3d, 0x8f, 0x24, 0xbe, 0x90, 0x2a, 0x84, 0x3e,
  0x9b, 0xb6, 0xf9, 0xbd, 0x7c, 0xd8, 0x63, 0x3e, 0x26, 0xd5, 0xfb, 0xbd,
  0x26, 0x66, 0xda, 0xbe, 0x83, 0xe1, 0x96, 0xbe, 0x8b, 0x2c, 0x98, 0xbe,
  0x68, 0x89, 0x97, 0x3d, 0x9c, 0x20, 0x76, 0x3d, 0xdb, 0x45, 0x78, 0x3b,
  0x76, 0xaf, 0xb6, 0xbd, 0x16, 0x96, 0x1c, 0xbe, 0x25, 0x03, 0x36, 0x3d,
  0x3d, 0xb4, 0x31, 0xbd, 0x3e, 0x07, 0x3b, 0x3c, 0x99, 0x67, 0x8e, 0x3e,
  0x06, 0xd6, 0x9a, 0x3c, 0x95, 0x54, 0x6e, 0x3d, 0x3c, 0xcb, 0x1d, 0x3e,
  0x0b, 0xfe, 0x3b, 0xbe, 0x44, 0x9a, 0xf8, 0x3d, 0xb1, 0xed, 0xd1, 0xbd,
  0x63, 0x8e, 0x21, 0x3e, 0x76, 0x8a, 0x8a, 0x3d, 0x67, 0x3f, 0xfc, 0x3d,
  0x82, 0x5a, 0xc6, 0x3d, 0xa6, 0x44, 0xee, 0x3d, 0x85, 0xec, 0x27, 0x3e,
  0xf4, 0x60, 0x59, 0x3d, 0xa8, 0xc3, 0x5f, 0x3c, 0x1b, 0x28, 0x87, 0x3d,
  0xf3, 0x63, 0x99, 0x3e, 0xfb, 0x00, 0xd7, 0x3d, 0x6b, 0x5b, 0x91, 0x3e,
  0x3e, 0x8f, 0x93, 0xbb, 0x6f, 0x97, 0x9a, 0xbd, 0x80, 0xd7, 0x3a, 0x3e,
  0x93, 0x5d, 0xcb, 0xbd, 0xf0, 0x97, 0xfa, 0x3d, 0x24, 0x9b, 0x12, 0xbd,
  0xb2, 0x7a, 0x65, 0x3d, 0x12, 0xfb, 0xe8, 0xbd, 0x23, 0xb1, 0x80, 0xbd,
  0xbe, 0x87, 0xb0, 0xbc, 0x2f, 0x62, 0x93, 0xbd, 0xdf, 0xa6, 0xb0, 0xbe,
  0xfb, 0xa1, 0x37, 0xbe, 0xa3, 0xd0, 0xf5, 0xbc, 0xcc, 0x1b, 0xc5, 0x3d,
  0x07, 0x28, 0x54, 0xbe, 0x87, 0x0b, 0x36, 0xbd, 0x39, 0xfa, 0x18, 0xbe,
  0x53, 0xc7, 0xb8, 0xbe, 0x7d, 0x36, 0x17, 0xbe, 0x76, 0x0c, 0xfe, 0xbe,
  0xe2, 0xa3, 0x37, 0xbe, 0x9e, 0x18, 0x6e, 0x3e, 0x89, 0xd9, 0x4f, 0xbe,
  0x17, 0xc8, 0x9d, 0xbd, 0x4d, 0xf5, 0x19, 0xbe, 0xde, 0x59, 0x68, 0x3d,
  0x7a, 0xae, 0x4f, 0x3e, 0x6b, 0x31, 0xb5, 0x3d, 0xc7, 0xcc, 0x0f, 0xbe,
  0x00, 0xda, 0x0f, 0x3e, 0x04, 0xe1, 0xb1, 0x3b, 0xa6, 0x03, 0x32, 0xbe,
  0x6c, 0x15, 0x84, 0xbe, 0x03, 0x18, 0x09, 0x3e, 0xed, 0xe7, 0xa4, 0x3e,
  0xcd, 0x08, 0xee, 0xbd, 0xe4, 0x2f, 0x87, 0xbe, 0x15, 0x87, 0x15, 0x3e,
  0x4a, 0x9a, 0x5f, 0x3d, 0xd9, 0x1b, 0x30, 0xbe, 0x4d, 0xc9, 0x85, 0xbe,
  0x5a, 0xee, 0x7a, 0x3d, 0x1c, 0x3f, 0x4a, 0xbe, 0x6b, 0xa1, 0x0e, 0x3f,
  0xb1, 0x51, 0xd3, 0xbd, 0x31, 0x28, 0x97, 0x3e, 0x19, 0x42, 0xb9, 0xbd,
  0xfe, 0xef, 0x01, 0xbe, 0x13, 0x1f, 0x82, 0xbe, 0xef, 0xe0, 0xc6, 0x3c,
  0x75, 0x05, 0x81, 0xbe, 0xef, 0x2d, 0xbf, 0x3d, 0x32, 0x12, 0x51, 0x3b,
  0xdb, 0x68, 0x43, 0x3c, 0x4f, 0x55, 0x47, 0xbd, 0x59, 0xc4, 0x0f, 0x3d,
  0x35, 0x86, 0x13, 0x3e, 0x17, 0x3b, 0xdb, 0x3e, 0x3a, 0x6c, 0x91, 0x3d,
  0x35, 0x9f, 0x05, 0xbe, 0x4e, 0xc3, 0xf1, 0x3d, 0x65, 0xfc, 0x94, 0xbd,
  0x9c, 0x14, 0xcb, 0xbe, 0xd1, 0x78, 0x30, 0x3c, 0xb2, 0xc2, 0x30, 0xbd,
  0x68, 0x2a, 0x40, 0x3c, 0x14, 0x8d, 0x8c, 0xbd, 0xe3, 0x8d, 0x06, 0xbf,
  0xde, 0xe1, 0x28, 0xbe, 0x69, 0x10, 0xab, 0x3e, 0x96, 0xca, 0x40, 0xbf,
  0x6f, 0xf9, 0x12, 0xbe, 0xf8, 0x3e, 0x44, 0xbd, 0xaa, 0x2d, 0xcd, 0x3c,
  0x77, 0xcc, 0x14, 0x3c, 0xb5, 0xa2, 0xe8, 0x3b, 0xf8, 0x3c, 0x81, 0xbe,
  0x0b, 0xa9, 0x83, 0x3e, 0x93, 0xe3, 0x08, 0xbf, 0xaa, 0x52, 0x9d, 0xbd,
  0x7d, 0xf4, 0x15, 0xbd, 0x9c, 0x9f, 0x45, 0xbe, 0xe8, 0x99, 0x0d, 0x3c,
  0xc9, 0x8a, 0x0a, 0xbe, 0xbe, 0xba, 0xfb, 0xbe, 0x36, 0x33, 0xff, 0x3b,
  0x33, 0xa9, 0xcf, 0xbe, 0x0f, 0xea, 0x42, 0xbd, 0x3a, 0x08, 0x12, 0xbf,
  0xb2, 0xf9, 0x76, 0xbf, 0x65, 0xa1, 0x01, 0xbf, 0xd0, 0x86, 0x31, 0xbe,
  0xc6, 0x37, 0xc2, 0xbe, 0x7b, 0x19, 0x3d, 0xbf, 0xdc, 0x63, 0x93, 0x3d,
  0xad, 0xd3, 0x97, 0xbc, 0x1e, 0x81, 0xad, 0xbd, 0x1a, 0x8b, 0x6d, 0xbe,
  0xd2, 0x0e, 0xd9, 0xbd, 0x32, 0xef, 0x1b, 0xbf, 0x55, 0x82, 0xf5, 0x3e,
  0x8c, 0x6c, 0xd6, 0x3d, 0xb9, 0x92, 0x42, 0xbd, 0xab, 0x3a, 0x8a, 0xbc,
  0xf1, 0x7e, 0x75, 0xbe, 0x16, 0x9d, 0x69, 0x3c, 0x60, 0x57, 0xbf, 0x3c,
  0xa9, 0x60, 0x7e, 0x3e, 0x35, 0x11, 0xa5, 0xbe, 0x71, 0x43, 0x1b, 0x3f,
  0x17, 0x10, 0x4b, 0x3d, 0x0d, 0xbd, 0xc1, 0x3c, 0x2c, 0x7b, 0x95, 0xbe,
  0xea, 0x0d, 0x70, 0x3e, 0x7e, 0x2a, 0xe1, 0x3c, 0xbd, 0x7c, 0x47, 0x3e,
  0x53, 0x09, 0x8e, 0xbe, 0xfc, 0xe3, 0xf5, 0xbe, 0xe7, 0xac, 0x1b, 0x3c,
  0xc9, 0x08, 0xf9, 0xbc, 0x22, 0x54, 0x27, 0x3d, 0xdd, 0x34, 0x43, 0xbe,
  0xe2, 0xb9, 0xe2, 0x3d, 0x1f, 0xcd, 0x86, 0xbe, 0x69, 0x13, 0x7a, 0xbe,
  0x4f, 0x57, 0x0e, 0x3e, 0x44, 0xda, 0xc1, 0xbe, 0x89, 0x30, 0xda, 0xbd,
  0x29, 0xe0, 0x44, 0x3e, 0x66, 0x18, 0xfb, 0x3e, 0x53, 0x38, 0x1f, 0xbc,
  0xe5, 0x0c, 0x04, 0x3d, 0x97, 0x1c, 0x84, 0xbe, 0x7f, 0xc9, 0x48, 0xbd,
  0x47, 0xa6, 0xaf, 0xbe, 0xbd, 0xe0, 0xa1, 0xbd, 0x4d, 0xd6, 0x46, 0xbd,
  0x69, 0xb8, 0x40, 0xbe, 0xfd, 0x6a, 0x9e, 0xbd, 0x5c, 0x47, 0x48, 0xbe,
  0x26, 0xea, 0x2b, 0xbf, 0xc0, 0x3c, 0x1d, 0x3e, 0xb5, 0x8a, 0xc7, 0xbe,
  0x11, 0x20, 0xd5, 0xbc, 0xca, 0x90, 0xa3, 0xbd, 0x62, 0x11, 0x1f, 0xbe,
  0xf1, 0x83, 0x51, 0xbc, 0xa1, 0xea, 0x28, 0x3e, 0x4e, 0xb3, 0xe8, 0xbe,
  0xb7, 0xb7, 0xa4, 0x3c, 0xc6, 0xc9, 0x85, 0xbe, 0x74, 0xe6, 0xc7, 0x3d,
  0xc6, 0xde, 0xff, 0xff, 0x10, 0x00, 0x00, 0x00, 0x08, 0x00, 0x00, 0x00,
  0x1c, 0x00, 0x00, 0x00, 0x38, 0x00, 0x00, 0x00, 0x04, 0x00, 0x00, 0x00,
  0x10, 0x00, 0x00, 0x00, 0x04, 0x00, 0x00, 0x00, 0x01, 0x00, 0x00, 0x00,
  0x08, 0x00, 0x00, 0x00, 0x1a, 0x00, 0x00, 0x00, 0x73, 0x65, 0x71, 0x75,
  0x65, 0x6e, 0x74, 0x69, 0x61, 0x6c, 0x2f, 0x63, 0x6f, 0x6e, 0x76, 0x32,
  0x64, 0x5f, 0x31, 0x2f, 0x43, 0x6f, 0x6e, 0x76, 0x32, 0x44, 0x00, 0x00,
  0xc0, 0xde, 0xff, 0xff, 0xb6, 0xdf, 0xff, 0xff, 0x04, 0x00, 0x00, 0x00,
  0x80, 0x01, 0x00, 0x00, 0x0b, 0x68, 0x3d, 0xbe, 0xd4, 0x4a, 0x6a, 0xbd,
  0x65, 0x80, 0x38, 0x3d, 0xea, 0xc2, 0x8e, 0xbd, 0xe6, 0x3f, 0x6d, 0x3d,
  0xb4, 0x47, 0x08, 0xbd, 0x2d, 0x7a, 0x28, 0x3c, 0x4a, 0x3f, 0x80, 0x3c,
  0xd1, 0xf4, 0x11, 0xbd, 0x39, 0x8e, 0x3a, 0xbc, 0xb2, 0x75, 0xf4, 0x3d,
  0x4d, 0xc1, 0x5b, 0xbd, 0x4c, 0x01, 0x11, 0x3f, 0x4d, 0xea, 0x76, 0x3d,
  0x30, 0xd9, 0x65, 0xbe, 0x0a, 0xe8, 0xbc, 0xbd, 0x6f, 0xa4, 0xab, 0x3e,
  0x2d, 0x6b, 0x2e, 0x3e, 0x05, 0xf9, 0xe6, 0xbe, 0x82, 0x46, 0x85, 0xbe,
  0xbe, 0xb2, 0x61, 0x3e, 0x5b, 0xbf, 0x53, 0xbc, 0xc0, 0xfe, 0xc3, 0xbd,
  0xad, 0xc3, 0x32, 0xbe, 0xdc, 0xac, 0x48, 0x3d, 0xc9, 0x89, 0xc0, 0xbd,
  0x94, 0x3e, 0xa4, 0x3a, 0x4e, 0xd2, 0xef, 0x3d, 0xfe, 0x69, 0x98, 0x3e,
  0x64, 0xec, 0x55, 0x3e, 0x86, 0x61, 0xfc, 0xbd, 0x42, 0xc7, 0x13, 0xbe,
  0xa1, 0xb7, 0x37, 0x3e, 0x10, 0xe7, 0xdd, 0x3d, 0x36, 0x25, 0xdb, 0x3c,
  0x0b, 0xc3, 0x9d, 0xbe, 0x49, 0xed, 0x0a, 0x3f, 0x52, 0x83, 0xfd, 0x3d,
  0x28, 0x42, 0x88, 0x3e, 0x0b, 0x81, 0xdd, 0xbd, 0xf5, 0x4e, 0x36, 0x3e,
  0xba, 0x2a, 0x66, 0xbe, 0x03, 0x6e, 0x58, 0xbe, 0x20, 0x88, 0xb2, 0xbd,
  0x02, 0x1d, 0x07, 0x3e, 0xdf, 0xf6, 0xe1, 0xbd, 0x91, 0x5d, 0x95, 0xbe,
  0xd4, 0xae, 0x40, 0xbe, 0xe3, 0x2c, 0x9b, 0xbc, 0xb9, 0x28, 0xc9, 0x3d,
  0xb6, 0x0c, 0x81, 0xbe, 0x44, 0xb8, 0x56, 0xbe, 0xb8, 0xea, 0x8c, 0x3e,
  0xaf, 0xb6, 0xd3, 0xbe, 0x63, 0xb9, 0x62, 0x3e, 0x5c, 0xcb, 0xa1, 0xbe,
  0xc7, 0x94, 0x34, 0x3e, 0x5b, 0x99, 0xd4, 0x3d, 0x55, 0x7e, 0xae, 0xbd,
  0x7e, 0xd3, 0x75, 0x3e, 0x14, 0x3b, 0x4d, 0x3e, 0x64, 0x18, 0xac, 0xbe,
  0xfd, 0x54, 0xd0, 0xbe, 0xe4, 0x3c, 0x3f, 0xbe, 0xe0, 0x4b, 0xd8, 0x3c,
  0x4e, 0x7a, 0x54, 0x3d, 0x46, 0x9b, 0x2e, 0xbc, 0xa5, 0xec, 0x6e, 0x3e,
  0xb0, 0x80, 0x76, 0x3e, 0x74, 0x1e, 0x1b, 0x3c, 0xf8, 0xe9, 0x43, 0x3d,
  0xe8, 0x9d, 0xfc, 0x3d, 0xf3, 0x99, 0x66, 0x3f, 0x07, 0xe1, 0xdd, 0x3b,
  0x2e, 0xf0, 0x9c, 0x3c, 0xa0, 0x1b, 0x0e, 0x3f, 0x39, 0xe6, 0x42, 0x3e,
  0x84, 0x4d, 0xcf, 0x3c, 0x79, 0xa5, 0xdc, 0x3c, 0x14, 0x5b, 0xfe, 0xbd,
  0x8c, 0x9e, 0x80, 0xbd, 0xa9, 0x2f, 0x15, 0xbf, 0x3d, 0x44, 0x06, 0xbe,
  0xfc, 0x8f, 0x74, 0x3b, 0xc1, 0xe0, 0x05, 0x3e, 0xd6, 0x71, 0x06, 0x3e,
  0xd7, 0xdc, 0xc1, 0xbc, 0xd7, 0xe4, 0x2f, 0x3e, 0x96, 0xf3, 0x42, 0xbd,
  0x85, 0xe7, 0x44, 0xbe, 0x6e, 0x11, 0xba, 0x3e, 0x7f, 0x5c, 0xde, 0xbd,
  0xc3, 0xbc, 0x86, 0xbe, 0x58, 0x21, 0x96, 0x3e, 0x0c, 0x22, 0xcf, 0x3d,
  0xf2, 0xc7, 0x9d, 0xbc, 0x9e, 0xe0, 0xff, 0xff, 0x10, 0x00, 0x00, 0x00,
  0x07, 0x00, 0x00, 0x00, 0x1c, 0x00, 0x00, 0x00, 0x38, 0x00, 0x00, 0x00,
  0x04, 0x00, 0x00, 0x00, 0x08, 0x00, 0x00, 0x00, 0x04, 0x00, 0x00, 0x00,
  0x03, 0x00, 0x00, 0x00, 0x01, 0x00, 0x00, 0x00, 0x18, 0x00, 0x00, 0x00,
  0x73, 0x65, 0x71, 0x75, 0x65, 0x6e, 0x74, 0x69, 0x61, 0x6c, 0x2f, 0x63,
  0x6f, 0x6e, 0x76, 0x32, 0x64, 0x2f, 0x43, 0x6f, 0x6e, 0x76, 0x32, 0x44,
  0x00, 0x00, 0x00, 0x00, 0x98, 0xe0, 0xff, 0xff, 0x8e, 0xe1, 0xff, 0xff,
  0x04, 0x00, 0x00, 0x00, 0x00, 0x01, 0x00, 0x00, 0xd9, 0x83, 0x70, 0x3e,
  0x03, 0xa4, 0xc8, 0x3e, 0x0d, 0xe3, 0xbc, 0xbe, 0x54, 0x2f, 0x34, 0x3e,
  0xdd, 0x1c, 0xbf, 0xbe, 0xaf, 0xb3, 0xa5, 0x3e, 0xed, 0x6e, 0xc1, 0x3d,
  0xcd, 0x5a, 0x07, 0x3d, 0x22, 0x86, 0xd2, 0xbe, 0x2b, 0xe1, 0x21, 0x3e,
  0x51, 0x51, 0xc0, 0x3e, 0x52, 0xe8, 0x37, 0x3e, 0x79, 0xb5, 0xc0, 0xbc,
  0x1e, 0xcb, 0x14, 0x3c, 0xf3, 0xf1, 0x17, 0xbe, 0x65, 0x7a, 0x0f, 0xbf,
  0xd8, 0x1c, 0x91, 0x3e, 0xd3, 0x4a, 0xa8, 0x3e, 0xba, 0x04, 0x94, 0xbe,
  0x75, 0xb5, 0x0b, 0xbd, 0x76, 0x95, 0xcc, 0xbe, 0x6b, 0x90, 0xaf, 0x3e,
  0x2f, 0x25, 0x1e, 0x3e, 0xcf, 0x23, 0x5e, 0x3e, 0xc2, 0x36, 0xdb, 0xbe,
  0x9f, 0x2e, 0xf6, 0x3d, 0xc0, 0x7e, 0x9f, 0x3e, 0xc7, 0x3e, 0x5b, 0x3e,
  0x73, 0x06, 0x8c, 0xbc, 0x27, 0xd3, 0x5c, 0x3d, 0xef, 0x20, 0x3a, 0xbf,
  0x63, 0x60, 0xd3, 0x3d, 0x27, 0x72, 0x18, 0x3e, 0xef, 0x88, 0x59, 0x3e,
  0xb3, 0xd7, 0x3c, 0xbe, 0x8f, 0xc2, 0xe2, 0xbe, 0x5c, 0x36, 0x93, 0xbe,
  0xf2, 0x22, 0xa3, 0x3e, 0xd3, 0x81, 0x65, 0x3e, 0xa2, 0xcf, 0x84, 0xbe,
  0xef, 0x6a, 0xb2, 0xbe, 0x8d, 0x30, 0xe1, 0x3d, 0x83, 0x6f, 0xd2, 0x3d,
  0xb9, 0x0c, 0x34, 0x3e, 0xb7, 0xa8, 0xa7, 0xbd, 0xf9, 0x83, 0x01, 0xbe,
  0xcb, 0x31, 0xdc, 0xbd, 0x9c, 0x39, 0xbf, 0x3e, 0x74, 0xe3, 0x86, 0x3e,
  0x7a, 0x54, 0xaa, 0x3e, 0x3e, 0x73, 0x95, 0xbe, 0x5f, 0x54, 0xc4, 0xbd,
  0x3b, 0x1e, 0xb3, 0xbe, 0x70, 0x5a, 0x6d, 0x3e, 0x0d, 0x3e, 0x61, 0x3e,
  0xd4, 0x95, 0x24, 0x3e, 0x2b, 0xe3, 0xe5, 0xbe, 0xf0, 0x0c, 0xb7, 0x3d,
  0xab, 0x2a, 0x09, 0x3e, 0xd9, 0xfb, 0x79, 0x3e, 0xfe, 0x87, 0x1e, 0xbe,
  0xa3, 0xac, 0x87, 0xbd, 0x58, 0xce, 0x65, 0x3e, 0x64, 0x1d, 0xbc, 0x3e,
  0xf6, 0xe1, 0xff, 0xff, 0x10, 0x00, 0x00, 0x00, 0x06, 0x00, 0x00, 0x00,
  0x14, 0x00, 0x00, 0x00, 0x30, 0x00, 0x00, 0x00, 0x02, 0x00, 0x00, 0x00,
  0x04, 0x00, 0x00, 0x00, 0x10, 0x00, 0x00, 0x00, 0x19, 0x00, 0x00, 0x00,
  0x73, 0x65, 0x71, 0x75, 0x65, 0x6e, 0x74, 0x69, 0x61, 0x6c, 0x2f, 0x64,
  0x65, 0x6e, 0x73, 0x65, 0x5f, 0x31, 0x2f, 0x4d, 0x61, 0x74, 0x4d, 0x75,
  0x6c, 0x00, 0x00, 0x00, 0xe8, 0xe1, 0xff, 0xff, 0xde, 0xe2, 0xff, 0xff,
  0x04, 0x00, 0x00, 0x00, 0x00, 0x1c, 0x00, 0x00, 0x1a, 0x87, 0xb7, 0x3e,
  0x09, 0x0f, 0x80, 0xbd, 0xd5, 0x89, 0x21, 0xbd, 0xfb, 0x33, 0x03, 0x3e,
  0x8d, 0x8e, 0x9c, 0x3d, 0xdb, 0x7c, 0x11, 0xbe, 0x8e, 0xf2, 0xa6, 0xbd,
  0x1e, 0x5a, 0x59, 0xbc, 0x60, 0xf8, 0x62, 0xbc, 0x2f, 0x2b, 0xa6, 0xbe,
  0xd4, 0xc7, 0xff, 0x3c, 0x95, 0x29, 0xfb, 0xbd, 0x94, 0xfb, 0x87, 0x3d,
  0x1d, 0x97, 0x0e, 0x3e, 0x46, 0x35, 0x3a, 0x3e, 0xf6, 0x7b, 0x41, 0x3e,
  0x1a, 0x08, 0xe5, 0x3e, 0x81, 0x84, 0x1b, 0xbe, 0x96, 0x07, 0x00, 0xbd,
  0x17, 0x59, 0x15, 0x3e, 0xba, 0x53, 0x4f, 0x3c, 0x32, 0x02, 0x9e, 0xbd,
  0x7f, 0xcf, 0xb8, 0x3d, 0x5a, 0xdc, 0x40, 0xbd, 0xbc, 0x4b, 0x12, 0xbe,
  0x12, 0xba, 0x7c, 0xbe, 0x86, 0x87, 0x36, 0x3c, 0xdc, 0x12, 0xed, 0xbc,
  0xda, 0xf0, 0xac, 0xbd, 0x81, 0xa8, 0xbf, 0xbe, 0xa8, 0x28, 0x47, 0xbe,
  0x6b, 0x9a, 0xc0, 0x3d, 0xa3, 0x1c, 0x92, 0xbd, 0xc9, 0xf0, 0xa2, 0xbd,
  0x59, 0x31, 0x3d, 0xbd, 0xac, 0x1f, 0x08, 0x3d, 0x93, 0x2e, 0x32, 0x3d,
  0x70, 0x37, 0x5a, 0xbe, 0x86, 0xca, 0x99, 0x3d, 0x25, 0x98, 0x91, 0xbd,
  0x9b, 0x9c, 0x21, 0xbd, 0x6a, 0x8a, 0x76, 0xbe, 0x7d, 0xa5, 0xc7, 0x3c,
  0x6b, 0x13, 0xb0, 0xbd, 0xe7, 0xc9, 0x41, 0xbd, 0xc6, 0xe6, 0x3e, 0xbe,
  0x8b, 0x05, 0x67, 0x3e, 0xd4, 0xa3, 0x18, 0xbe, 0xab, 0x82, 0xe2, 0xbc,
  0xf6, 0x36, 0x75, 0x3c, 0xd5, 0x6e, 0x93, 0xbc, 0x34, 0x95, 0x94, 0x3b,
  0x79, 0x47, 0x2b, 0xbd, 0xf8, 0xfe, 0xd0, 0xbd, 0x4f, 0x91, 0x77, 0x3c,
  0x06, 0x34, 0x15, 0xbe, 0xb1, 0xd9, 0x11, 0xbe, 0x72, 0x9e, 0xf7, 0x3c,
  0x48, 0x25, 0xf6, 0x3b, 0x92, 0x1d, 0x34, 0xbe, 0x67, 0x5d, 0xc9, 0xbc,
  0x2e, 0x64, 0x2c, 0xbc, 0x51, 0x0f, 0x17, 0xbb, 0x5d, 0x97, 0x06, 0xbe,
  0xad, 0x39, 0xbb, 0xbd, 0x33, 0xc5, 0x56, 0xbb, 0x84, 0x92, 0x2f, 0xbc,
  0xc4, 0xb5, 0x5b, 0xbe, 0xea, 0xe4, 0xe2, 0x3d, 0x8b, 0x19, 0xef, 0xbe,
  0xce, 0x1e, 0x63, 0x3e, 0x2c, 0xec, 0x20, 0xbd, 0xb0, 0xf6, 0x58, 0xbc,
  0xfd, 0x7b, 0xf1, 0xbe, 0x5e, 0xa9, 0xfd, 0x3c, 0xbb, 0x2f, 0xcc, 0xbe,
  0x5e, 0x58, 0xd5, 0x3c, 0xfc, 0xfc, 0xb0, 0xbe, 0xf3, 0xee, 0xa6, 0x3e,
  0xb4, 0x0c, 0x81, 0xbd, 0x4c, 0x4a, 0xc0, 0x3e, 0x01, 0xca, 0x47, 0xbe,
  0x9a, 0x4a, 0x4d, 0x3d, 0xbf, 0xf5, 0x1d, 0xbe, 0xc7, 0x92, 0xec, 0x3d,
  0xd3, 0x40, 0xd3, 0x3c, 0x67, 0x77, 0x03, 0x3e, 0x3b, 0x12, 0x69, 0x3d,
  0x96, 0xb1, 0x1f, 0x3d, 0xbb, 0xfe, 0x7e, 0xbe, 0x11, 0x98, 0x1a, 0x3c,
  0x66, 0x68, 0x0c, 0xbd, 0x06, 0x7a, 0x41, 0x3e, 0x75, 0xe7, 0x17, 0xbe,
  0x84, 0xb6, 0x03, 0x3f, 0x4f, 0x5a, 0xd7, 0x3d, 0xcd, 0x82, 0x12, 0x3e,
  0xec, 0x1d, 0xbf, 0xbd, 0x94, 0x7e, 0xde, 0xbd, 0x9a, 0xc0, 0xc7, 0xba,
  0x32, 0x45, 0x5a, 0x3e, 0x10, 0xb6, 0x0d, 0xbe, 0xeb, 0x9d, 0x3e, 0x3e,
  0xf6, 0xa1, 0x88, 0xbd, 0xc9, 0xe7, 0x42, 0x3d, 0xef, 0x77, 0x9c, 0xbc,
  0x8d, 0x92, 0x7a, 0x3d, 0xf9, 0x3f, 0x1a, 0x3d, 0x34, 0x1c, 0xde, 0xbc,
  0xa7, 0xe5, 0x12, 0x3d, 0x10, 0x9a, 0x9f, 0x3e, 0x1c, 0x31, 0xc5, 0xbd,
  0x83, 0x81, 0x3f, 0xbe, 0x71, 0x4a, 0x48, 0x3d, 0xf1, 0x73, 0x29, 0xbb,
  0x93, 0x85, 0x44, 0xbe, 0xb8, 0x6f, 0x4c, 0xbe, 0x1a, 0xb3, 0xad, 0x3c,
  0xb9, 0xe0, 0x1b, 0x3f, 0xf8, 0x5f, 0xe9, 0x3d, 0xcb, 0x0e, 0xf3, 0xbb,
  0x8a, 0x74, 0x34, 0x3e, 0x1b, 0xe0, 0x92, 0x3c, 0xc7, 0x5e, 0x64, 0x3d,
  0x2f, 0x34, 0x3a, 0xbe, 0x9d, 0xbf, 0x28, 0x3d, 0x9a, 0xff, 0xb8, 0xba,
  0xe5, 0x12, 0xa0, 0x3d, 0x33, 0xf5, 0x6a, 0xbd, 0x57, 0x7e, 0x7f, 0x3c,
  0xcb, 0x0d, 0xbc, 0xbd, 0x83, 0x66, 0x41, 0xbe, 0xc5, 0x6d, 0x65, 0xbe,
  0x91, 0xaf, 0x46, 0xbe, 0x2f, 0xd2, 0x7c, 0x3f, 0x70, 0xc0, 0x97, 0xbe,
  0x78, 0xc4, 0x13, 0x3f, 0x76, 0xc6, 0x29, 0x3e, 0x57, 0xaf, 0x70, 0xbc,
  0x8d, 0x63, 0x91, 0xbc, 0xfe, 0x6e, 0x83, 0xbe, 0xe4, 0xcc, 0x67, 0x3d,
  0x56, 0xe2, 0x23, 0x3c, 0x30, 0x02, 0xe1, 0xbd, 0x89, 0x69, 0xf5, 0x3e,
  0xa9, 0xa4, 0x72, 0xbd, 0x9d, 0xd5, 0x70, 0xbe, 0x9f, 0xb7, 0x80, 0xbc,
  0x29, 0xb2, 0xc1, 0xbd, 0xbe, 0x6c, 0x48, 0xbd, 0xd4, 0xe6, 0x85, 0x3f,
  0x32, 0x31, 0x2b, 0xbe, 0x7e, 0x55, 0x17, 0x3f, 0x6e, 0x8e, 0xf9, 0x3d,
  0x33, 0xbd, 0xd8, 0x3b, 0xd1, 0xf8, 0x0d, 0x3e, 0x0e, 0x22, 0x19, 0xbe,
  0x26, 0xe7, 0xd6, 0xbd, 0x86, 0xe1, 0xdd, 0xbd, 0x49, 0xf5, 0xa9, 0xbe,
  0xe8, 0xb7, 0x72, 0x3e, 0xd0, 0xab, 0x7a, 0x3d, 0x48, 0xa8, 0x82, 0xbe,
  0xb0, 0xc2, 0x81, 0xbc, 0x62, 0x08, 0x3e, 0x3b, 0x86, 0x62, 0x4f, 0xbd,
  0x88, 0x03, 0x77, 0x3f, 0x18, 0x4d, 0x1f, 0xbe, 0x11, 0x40, 0xfc, 0x3e,
  0x3f, 0x24, 0xaa, 0x3d, 0x52, 0xa0, 0xe0, 0x3c, 0xa7, 0x55, 0xa2, 0x3e,
  0x32, 0x47, 0x56, 0xbe, 0x06, 0xf5, 0x5c, 0xbe, 0x90, 0xfb, 0x36, 0x3e,
  0x68, 0xbb, 0xfa, 0xbd, 0x7f, 0x85, 0x48, 0x3e, 0xbe, 0x25, 0xf0, 0xbd,
  0x99, 0xd8, 0x7a, 0xbe, 0x45, 0x90, 0xd4, 0x3d, 0xe6, 0x8c, 0xf8, 0xbe,
  0xe3, 0x0c, 0x58, 0x3e, 0x8c, 0xe2, 0xb9, 0x3f, 0x35, 0x0c, 0x50, 0xbe,
  0x55, 0x26, 0x7f, 0x3d, 0x25, 0xcd, 0x9a, 0x3e, 0x3a, 0x65, 0xe1, 0xba,
  0xa3, 0x25, 0x81, 0x3e, 0x4e, 0x9b, 0xaf, 0xbe, 0xdc, 0xd8, 0x02, 0x3e,
  0x13, 0x3c, 0xd6, 0xbe, 0x9f, 0xba, 0x73, 0xbe, 0xc7, 0x9f, 0x72, 0xbe,
  0xce, 0x57, 0x61, 0x3d, 0x83, 0x57, 0x46, 0xbe, 0xaf, 0x0b, 0x14, 0xbd,
  0xe5, 0xe6, 0x28, 0xbe, 0x72, 0xc6, 0xdb, 0x3d, 0x86, 0x62, 0x66, 0x3f,
  0x6a, 0x47, 0x30, 0xbe, 0x65, 0xfb, 0x15, 0x3e, 0x93, 0x21, 0xac, 0x3e,
  0x62, 0x58, 0x82, 0x3c, 0x2b, 0x69, 0x15, 0x3e, 0x32, 0xbe, 0xd1, 0xbe,
  0x45, 0xa1, 0x1e, 0x3e, 0x17, 0x32, 0x62, 0xbe, 0xd0, 0x8f, 0x92, 0xbe,
  0xda, 0xc1, 0x70, 0xbe, 0x3d, 0xbc, 0xfa, 0x3c, 0x31, 0xd2, 0xa1, 0xbd,
  0xd0, 0x3f, 0x56, 0x3b, 0x91, 0x99, 0x18, 0xbe, 0x8d, 0x41, 0x2a, 0xbb,
  0xbc, 0x91, 0xee, 0xbd, 0x65, 0xdb, 0x87, 0xbe, 0x0c, 0xcf, 0x12, 0xbc,
  0x7f, 0x1b, 0x05, 0x3d, 0x49, 0x32, 0x0f, 0x3b, 0x8a, 0x61, 0x12, 0x3d,
  0x09, 0x59, 0x82, 0xbe, 0x12, 0x51, 0xf8, 0x3d, 0x0e, 0x1b, 0x90, 0xbe,
  0x70, 0x96, 0x7f, 0xbe, 0x1f, 0xaf, 0x32, 0x3d, 0xeb, 0xd9, 0xfb, 0x3c,
  0x7c, 0x7a, 0x88, 0xbd, 0x36, 0x6e, 0xb0, 0x3d, 0xb0, 0x6f, 0xac, 0xbd,
  0x67, 0xf6, 0x39, 0xbe, 0x46, 0xcb, 0x97, 0xbe, 0xd2, 0xf1, 0x2a, 0xbf,
  0xe3, 0x5f, 0x84, 0xbd, 0x7d, 0xf6, 0x0e, 0x3d, 0x19, 0xbb, 0x24, 0xbe,
  0xc3, 0xcd, 0xb3, 0x3c, 0x69, 0xe6, 0xda, 0x3c, 0x12, 0x72, 0xb7, 0xbe,
  0x54, 0x8c, 0x38, 0x3c, 0xf8, 0x1d, 0xb7, 0xbe, 0x6d, 0xd9, 0xfd, 0x3d,
  0xba, 0x36, 0x29, 0x3e, 0x8b, 0x2d, 0x3e, 0x3b, 0x7c, 0xed, 0xb4, 0xbc,
  0xfa, 0x41, 0x96, 0x3d, 0xad, 0x78, 0x8c, 0x3e, 0x7f, 0x45, 0xf0, 0xbb,
  0xd0, 0x59, 0x6a, 0xbe, 0xd2, 0x12, 0x84, 0xbe, 0x22, 0xcb, 0xf2, 0x3d,
  0xe9, 0x96, 0xec, 0xbe, 0xb4, 0x67, 0xfb, 0xbd, 0x12, 0x25, 0xda, 0xbd,
  0x0a, 0x22, 0xa5, 0x3e, 0x5d, 0x5a, 0xa3, 0x3d, 0x56, 0xc8, 0x42, 0xbc,
  0x01, 0x9a, 0xdc, 0x3e, 0xf8, 0x4f, 0x05, 0xbe, 0x81, 0x18, 0x81, 0xbb,
  0x96, 0x26, 0x7c, 0x3d, 0x45, 0xfa, 0x1e, 0x3e, 0x1d, 0xd7, 0x52, 0x3e,
  0x84, 0xe2, 0xe8, 0xbc, 0x1a, 0x35, 0xcd, 0x3d, 0xe2, 0xc3, 0x35, 0xbe,
  0x96, 0x59, 0xbf, 0x3c, 0xdc, 0xcb, 0xd1, 0xbe, 0x95, 0x2f, 0xf6, 0xbc,
  0x74, 0xa3, 0xe3, 0xbd, 0x7a, 0xa5, 0xe0, 0x3c, 0x04, 0x29, 0x88, 0xbd,
  0x65, 0x8c, 0x96, 0x3e, 0x4e, 0xd3, 0xa5, 0x3e, 0xa2, 0x0d, 0xdd, 0xbd,
  0x4b, 0x61, 0x28, 0x3d, 0xdd, 0x1f, 0x5e, 0xbd, 0x47, 0xdc, 0x12, 0xbd,
  0x93, 0xac, 0x2d, 0xbd, 0x94, 0x71, 0xad, 0xbe, 0xc7, 0x9b, 0xe5, 0x3c,
  0x62, 0x3f, 0x40, 0x3c, 0x1e, 0x28, 0x7b, 0xbe, 0x93, 0xcf, 0xef, 0xbe,
  0xbd, 0x11, 0x42, 0xbd, 0xa1, 0x4a, 0x82, 0x3d, 0x72, 0x22, 0x27, 0xbe,
  0xd4, 0xba, 0x16, 0xbe, 0x75, 0xff, 0xf7, 0xbd, 0xa2, 0x7d, 0xe0, 0x3d,
  0xee, 0xd8, 0x92, 0x3c, 0xcf, 0xed, 0xf1, 0xbd, 0x32, 0x7e, 0xfa, 0xbb,
  0x57, 0x76, 0x1c, 0x3e, 0x5e, 0x75, 0x04, 0xbe, 0x41, 0x8a, 0xfc, 0xbc,
  0x26, 0x9e, 0xe9, 0x3d, 0xd2, 0xb3, 0x28, 0x3d, 0x10, 0xa2, 0x13, 0x3e,
  0xca, 0x97, 0xfc, 0xbe, 0xbf, 0x11, 0xaf, 0xbd, 0xfd, 0xbb, 0x71, 0x3a,
  0xde, 0xb9, 0x4b, 0xbe, 0xfa, 0x7c, 0xac, 0x3d, 0x05, 0x08, 0x36, 0xbe,
  0xc9, 0x0e, 0x6a, 0x3d, 0xc3, 0xd6, 0x4d, 0x3e, 0x0a, 0x4c, 0xcf, 0xbd,
  0xe8, 0x7c, 0x8a, 0xbc, 0xb2, 0xca, 0x1e, 0xbe, 0xd0, 0x7a, 0x19, 0xbe,
  0x60, 0x09, 0xb6, 0xbd, 0x28, 0xbd, 0x51, 0x3d, 0x03, 0x49, 0x3d, 0xbe,
  0x6e, 0x3a, 0x76, 0x3d, 0xc7, 0x4d, 0xf4, 0xbe, 0x83, 0x85, 0x25, 0xbd,
  0x54, 0x21, 0xee, 0xbd, 0x54, 0x2e, 0xac, 0xbe, 0xbb, 0x11, 0x12, 0xbe,
  0xe6, 0x3c, 0xc6, 0xbd, 0xb2, 0xb0, 0xc3, 0xbd, 0xfa, 0x4a, 0x20, 0x3e,
  0x9f, 0xc9, 0x79, 0x3b, 0xf7, 0xb8, 0x2b, 0x3e, 0x49, 0xf6, 0xad, 0x3d,
  0xa8, 0x8b, 0xa6, 0x3d, 0xfa, 0x80, 0x4e, 0x3d, 0xe7, 0x7c, 0x3c, 0x3e,
  0x56, 0x33, 0xe0, 0x3d, 0xf3, 0x25, 0x34, 0x3d, 0x58, 0x3c, 0x65, 0xbe,
  0x35, 0x70, 0xb0, 0x3d, 0xdc, 0x77, 0x26, 0x3e, 0xc4, 0xa4, 0x53, 0x3e,
  0x8d, 0x43, 0xb0, 0xbd, 0xc0, 0x4a, 0x1c, 0x39, 0x49, 0x8b, 0x06, 0xbd,
  0x08, 0x4c, 0x28, 0xbe, 0x42, 0xde, 0x1f, 0xbe, 0xb2, 0x0f, 0xdf, 0x3d,
  0x0f, 0xcb, 0x2c, 0xbd, 0x5a, 0xa3, 0x99, 0xbd, 0x0c, 0x20, 0x3c, 0x3f,
  0x02, 0xfc, 0x45, 0xbd, 0x30, 0x27, 0x2c, 0x3d, 0x66, 0x29, 0xd2, 0x3c,
  0x13, 0xb1, 0x65, 0xbe, 0x24, 0x29, 0x69, 0xbe, 0xc3, 0x41, 0x49, 0x3d,
  0x99, 0xeb, 0xf7, 0x3d, 0x45, 0x97, 0x0d, 0xbd, 0x41, 0x8b, 0x68, 0x3d,
  0x19, 0xd6, 0xd9, 0x3d, 0x3f, 0x18, 0x0a, 0xbe, 0x0f, 0x38, 0x21, 0xbe,
  0x06, 0x28, 0x98, 0xbd, 0x57, 0xed, 0x96, 0xba, 0x94, 0x76, 0x31, 0xbe,
  0x07, 0x02, 0xfb, 0x3e, 0x64, 0x4b, 0x0c, 0x3e, 0x17, 0xe3, 0x1e, 0x3f,
  0x7d, 0xfc, 0x30, 0xbe, 0xa6, 0xd5, 0x72, 0xbe, 0x19, 0x6e, 0xab, 0x3b,
  0x78, 0x35, 0x03, 0xbe, 0x49, 0x70, 0x17, 0xbe, 0x88, 0xc5, 0x18, 0xbe,
  0x83, 0x5d, 0xce, 0x3d, 0x4f, 0x8d, 0x16, 0x3e, 0x97, 0x2b, 0x98, 0xbe,
  0x78, 0xd8, 0x73, 0x3d, 0x25, 0x37, 0x3c, 0x3e, 0x0b, 0x0d, 0x3a, 0xbd,
  0x5f, 0x4b, 0xca, 0xbd, 0xcd, 0xbe, 0x45, 0x3f, 0xea, 0x69, 0x2e, 0xbe,
  0xb2, 0x4f, 0x9e, 0x3e, 0x86, 0x52, 0xad, 0x3d, 0x0a, 0xfd, 0x4c, 0xbe,
  0x50, 0x8c, 0xa8, 0xbd, 0x46, 0x0a, 0x92, 0x3d, 0x96, 0x17, 0x6f, 0x3e,
  0x86, 0x41, 0xf1, 0x3d, 0x42, 0x94, 0x42, 0xbe, 0x01, 0x67, 0xbd, 0x3d,
  0x29, 0x04, 0x03, 0xbe, 0x46, 0x36, 0x22, 0xbe, 0xf4, 0x91, 0x4b, 0x3c,
  0x6b, 0x17, 0x09, 0x3e, 0xbc, 0x36, 0x0d, 0xbb, 0xed, 0xe0, 0xcd, 0x3e,
  0xc3, 0x97, 0x32, 0xbe, 0x83, 0x52, 0x19, 0x3f, 0xad, 0x24, 0x20, 0xbd,
  0x70, 0xa3, 0xaa, 0xbe, 0x37, 0xd9, 0xd4, 0x3d, 0xed, 0xbc, 0x04, 0xbe,
  0xe1, 0x04, 0x3d, 0x3d, 0xe4, 0x8e, 0x19, 0xbe, 0x49, 0xb6, 0x91, 0x3d,
  0x6b, 0x83, 0x29, 0x3e, 0xab, 0x01, 0x54, 0xbe, 0xd3, 0x6e, 0xaa, 0x3b,
  0x42, 0xbd, 0x5d, 0x3e, 0xde, 0x58, 0x47, 0x3d, 0xcb, 0xec, 0xa4, 0x3e,
  0xf4, 0x5b, 0xde, 0x3e, 0x77, 0x89, 0x95, 0x3d, 0xad, 0xf5, 0x8c, 0x3e,
  0x7e, 0xa9, 0x1d, 0x3e, 0x6c, 0xd3, 0xe7, 0xbd, 0x00, 0xc1, 0xa4, 0xbc,
  0x9d, 0x47, 0x62, 0xbe, 0x49, 0xcc, 0xc2, 0x3d, 0x15, 0xed, 0xe6, 0xbd,
  0xbc, 0x9f, 0x66, 0xbe, 0xf8, 0x88, 0xeb, 0xbd, 0xb7, 0x1e, 0x0f, 0xbe,
  0x98, 0xc0, 0x1f, 0xbc, 0x57, 0x70, 0x20, 0xbd, 0xa3, 0xe8, 0x81, 0xbe,
  0x5f, 0xd2, 0x89, 0x3e, 0x37, 0xbb, 0x33, 0x3f, 0xd1, 0x00, 0xd5, 0x3d,
  0x56, 0x30, 0x4f, 0x3e, 0xd3, 0xcf, 0x3d, 0x3e, 0x2c, 0xc6, 0x09, 0xbe,
  0x04, 0xa7, 0x15, 0x3d, 0x58, 0xbd, 0x0d, 0xbe, 0x48, 0x0c, 0xd5, 0xbc,
  0x2f, 0x89, 0x11, 0xbe, 0x2b, 0x57, 0xfd, 0x3d, 0x84, 0x7c, 0xcc, 0x3d,
  0x20, 0xbd, 0xcc, 0xbe, 0x2c, 0x33, 0x3f, 0xbd, 0x03, 0xf2, 0xbd, 0xbd,
  0x7c, 0x4a, 0x24, 0xbe, 0xab, 0xe3, 0x66, 0xbe, 0x71, 0x0e, 0x88, 0xbe,
  0x0e, 0x0d, 0x25, 0xbd, 0x9b, 0xb4, 0x66, 0x3d, 0x7a, 0x36, 0x56, 0xbd,
  0xf3, 0xd5, 0x77, 0xbd, 0xc6, 0x94, 0x0a, 0xbe, 0x60, 0xf2, 0xc4, 0xbd,
  0xb5, 0x52, 0x10, 0xbe, 0xda, 0xfc, 0x27, 0xbe, 0x8e, 0x9b, 0xbd, 0xbd,
  0x0e, 0x84, 0xcc, 0xbd, 0x5c, 0x3e, 0x70, 0x3d, 0x0b, 0x0c, 0x41, 0xbc,
  0x1c, 0x5c, 0x2f, 0xbe, 0x39, 0xfb, 0xa3, 0xbc, 0xf9, 0x6c, 0x3d, 0xbe,
  0x90, 0x0e, 0x84, 0xbe, 0x0e, 0xb2, 0x25, 0xbf, 0x9b, 0xbb, 0x88, 0x3d,
  0x91, 0x26, 0xd6, 0x3d, 0x62, 0xe5, 0x45, 0xbe, 0xf7, 0x66, 0x38, 0x3c,
  0x4c, 0xf9, 0x35, 0xbd, 0x0d, 0xce, 0x9e, 0xbe, 0x0c, 0x2c, 0x74, 0xbc,
  0x94, 0x80, 0xab, 0xbe, 0x4d, 0x2e, 0xeb, 0xbd, 0x89, 0x04, 0x9d, 0x3e,
  0x2f, 0xe2, 0x09, 0xbc, 0x27, 0xf6, 0xdc, 0xbd, 0xf2, 0xa3, 0x18, 0xbe,
  0x15, 0xc0, 0xa9, 0x3d, 0x5f, 0xfd, 0x28, 0xbe, 0xbf, 0x60, 0x2e, 0xbe,
  0x83, 0x59, 0x86, 0xbe, 0xee, 0x14, 0xea, 0xbc, 0xa5, 0x8e, 0xb9, 0xbe,
  0x3c, 0x40, 0xf5, 0x3d, 0xa4, 0x7d, 0x20, 0x3d, 0x01, 0x5e, 0x02, 0x3d,
  0x1b, 0x3e, 0xdd, 0x3c, 0x1f, 0x3e, 0xc0, 0xbd, 0xb5, 0xa4, 0x50, 0x3e,
  0xcc, 0xe6, 0x1a, 0xbe, 0x13, 0xd1, 0x5d, 0xbd, 0x3c, 0x2f, 0x39, 0xbe,
  0xb7, 0x16, 0x71, 0x3e, 0xc3, 0x17, 0x82, 0x3e, 0x3d, 0xc3, 0x51, 0x3c,
  0x2b, 0x9f, 0x97, 0x3e, 0x23, 0xac, 0xa8, 0xbd, 0xd0, 0x40, 0x50, 0x3d,
  0x52, 0x88, 0x89, 0xbe, 0x76, 0xd8, 0x09, 0xbe, 0x67, 0x84, 0x11, 0xbd,
  0x0c, 0x5c, 0x34, 0x3e, 0x9d, 0xa0, 0x43, 0xbe, 0x7f, 0x4d, 0x09, 0x3d,
  0xef, 0x0a, 0xf0, 0x3e, 0xfe, 0x67, 0x07, 0xbe, 0x1c, 0x73, 0x31, 0x3c,
  0xee, 0x86, 0x7d, 0xbd, 0x8a, 0x31, 0x42, 0x3d, 0xd7, 0xac, 0xbe, 0x3c,
  0x4f, 0xe6, 0x9f, 0xbc, 0x5b, 0xe1, 0x9f, 0x3d, 0xfd, 0x68, 0x7a, 0xbe,
  0xed, 0x94, 0x83, 0x3a, 0x1b, 0xfd, 0xc2, 0xbe, 0xe3, 0x24, 0x0e, 0xbe,
  0xb8, 0x44, 0x5f, 0xbe, 0xf1, 0x06, 0xbf, 0xbe, 0xeb, 0x81, 0x73, 0xbe,
  0xd9, 0xfa, 0x6c, 0xbd, 0x96, 0x92, 0x9e, 0xbd, 0x47, 0x2a, 0x97, 0xbd,
  0x1d, 0x0c, 0xe5, 0xbd, 0xb0, 0x01, 0xf6, 0x3d, 0x51, 0xcf, 0x7d, 0x3e,
  0x5e, 0xb1, 0x3f, 0xbe, 0x2f, 0x14, 0x2e, 0xbe, 0x74, 0x8d, 0xb4, 0x3d,
  0xd0, 0x01, 0x3e, 0x3e, 0x04, 0x0b, 0xbe, 0xbd, 0xf2, 0xdd, 0x17, 0xbe,
  0xc2, 0x26, 0x02, 0x3c, 0xdf, 0xbe, 0x8f, 0x3c, 0xd6, 0xaf, 0x61, 0xbd,
  0x90, 0x4f, 0xff, 0x3c, 0x7b, 0x6a, 0x6c, 0x3d, 0xbf, 0xbf, 0xbf, 0xbd,
  0x9b, 0x07, 0x0c, 0x3e, 0x95, 0xde, 0x8e, 0xbd, 0x2d, 0xf9, 0xbb, 0x3d,
  0x7e, 0x8a, 0x37, 0xbd, 0x10, 0xa8, 0x90, 0xbe, 0xf0, 0xec, 0x0a, 0xbe,
  0xa5, 0x98, 0x65, 0x3e, 0x89, 0xb7, 0x3a, 0x3d, 0x9a, 0xb7, 0x48, 0xbe,
  0xc1, 0x9f, 0x4a, 0xbe, 0x36, 0x8f, 0x93, 0x3d, 0xdb, 0xf7, 0x4d, 0xbd,
  0x9a, 0x6f, 0x9e, 0xbd, 0xc1, 0x13, 0xf9, 0xbd, 0xde, 0x88, 0x34, 0x3e,
  0x50, 0xa3, 0x66, 0x3a, 0x79, 0x9a, 0xd8, 0xbc, 0x6b, 0xaa, 0x2d, 0x3e,
  0x54, 0x07, 0x0e, 0xbe, 0x6d, 0xf4, 0x60, 0xbe, 0x2c, 0x3f, 0x80, 0x3d,
  0x96, 0x8c, 0x8a, 0xbd, 0x53, 0x51, 0x11, 0x3e, 0x91, 0xd5, 0x63, 0xbd,
  0x8e, 0x88, 0x84, 0xbd, 0xdb, 0x5a, 0x98, 0xbe, 0x7d, 0x37, 0x0b, 0x3d,
  0xd6, 0x05, 0xab, 0xbd, 0x90, 0x45, 0x96, 0x3d, 0x4f, 0xbd, 0xa9, 0x3c,
  0xdc, 0x96, 0x08, 0x3e, 0x46, 0xb0, 0x94, 0x3e, 0x38, 0x18, 0xf6, 0x3b,
  0xe1, 0xab, 0x51, 0xbd, 0xf3, 0xf3, 0x0e, 0x3e, 0x43, 0xe9, 0x69, 0xbc,
  0x46, 0x4d, 0x84, 0xbe, 0x89, 0x91, 0x3f, 0x3d, 0x97, 0xed, 0x7b, 0xbf,
  0x56, 0xd3, 0x3a, 0x3e, 0x08, 0xa9, 0xdc, 0xbd, 0xa0, 0x08, 0x8f, 0xbd,
  0xce, 0x1f, 0xe4, 0x3c, 0x35, 0x72, 0x4d, 0x3e, 0x1e, 0x1d, 0x00, 0xbf,
  0x0d, 0x29, 0xbc, 0x3d, 0x4b, 0x11, 0x0f, 0xbf, 0xb7, 0x05, 0xb8, 0x3e,
  0xa6, 0xbf, 0x17, 0x3e, 0x57, 0x42, 0x79, 0xbe, 0x1b, 0x90, 0x5a, 0xbe,
  0x79, 0x1e, 0xc5, 0x3c, 0x98, 0x98, 0xde, 0x3e, 0x4b, 0x2d, 0x26, 0x3e,
  0xfb, 0x78, 0x9d, 0xbd, 0xac, 0x5c, 0x96, 0xbe, 0x21, 0x12, 0x53, 0xbe,
  0x81, 0xd6, 0x8e, 0xbc, 0x0c, 0x0e, 0xf7, 0x3c, 0xae, 0xa2, 0x13, 0xbe,
  0xa8, 0x9d, 0x82, 0x3e, 0xee, 0x6b, 0x93, 0xbe, 0x01, 0x54, 0xea, 0x3d,
  0xd0, 0x67, 0xc4, 0xbc, 0x24, 0x61, 0x35, 0xbd, 0xfe, 0xb4, 0x0d, 0xbf,
  0xaa, 0x7f, 0x67, 0xbe, 0x40, 0x18, 0xf2, 0xbe, 0x48, 0x34, 0x94, 0xbc,
  0xa5, 0x01, 0x8f, 0x3e, 0xf3, 0xd7, 0x51, 0xbd, 0x48, 0xa1, 0x22, 0xbf,
  0x72, 0xfe, 0x93, 0xbe, 0x87, 0xf8, 0xfc, 0xbc, 0x04, 0x27, 0x68, 0xbe,
  0x71, 0x51, 0x9f, 0xbe, 0xa5, 0xbf, 0x41, 0x3d, 0xb5, 0x98, 0x0b, 0xbe,
  0xc8, 0xe1, 0x79, 0xbd, 0xd5, 0x3d, 0x85, 0xbe, 0x1c, 0x14, 0x7c, 0xbd,
  0x9c, 0xb0, 0xd5, 0xbe, 0x8a, 0x68, 0x1f, 0x3e, 0x5a, 0x55, 0xb7, 0xbe,
  0x0c, 0x8f, 0x6d, 0xbe, 0xa6, 0xfd, 0x34, 0x3a, 0x09, 0x3f, 0xab, 0x3d,
  0x85, 0x35, 0x2e, 0xbf, 0x62, 0xcd, 0xb6, 0xbe, 0xba, 0xfe, 0x3e, 0xbd,
  0x96, 0x9f, 0x2a, 0xbf, 0xf7, 0x70, 0x7b, 0xbe, 0x8b, 0x91, 0x50, 0xbd,
  0x38, 0x3b, 0x3e, 0xbe, 0x81, 0x03, 0x2a, 0x3c, 0x9e, 0xa6, 0x82, 0xbe,
  0x22, 0x75, 0x0f, 0x3d, 0xb9, 0xac, 0x75, 0xbe, 0x62, 0x85, 0x52, 0x3d,
  0x3d, 0x33, 0xe1, 0xba, 0x41, 0x63, 0x83, 0xbe, 0x36, 0x95, 0x5e, 0x3e,
  0x6e, 0x97, 0x00, 0x3e, 0xf9, 0xe2, 0x15, 0x3d, 0xe2, 0xe9, 0x0b, 0xbe,
  0x9d, 0xe5, 0x2e, 0xba, 0x38, 0xca, 0xd5, 0xbe, 0x7a, 0x7b, 0x3c, 0xbc,
  0x96, 0x3f, 0xe1, 0xbd, 0xf2, 0x6d, 0xa4, 0x3e, 0x68, 0xad, 0xb7, 0x3d,
  0xdb, 0x60, 0x93, 0x3e, 0xaf, 0x2c, 0xbb, 0xbc, 0x66, 0xcc, 0x85, 0xbc,
  0xae, 0xb5, 0x4a, 0x3d, 0x30, 0x63, 0x86, 0x3c, 0xd2, 0xac, 0x22, 0xbe,
  0xa4, 0xda, 0xeb, 0x3c, 0x98, 0xe8, 0xd7, 0xbc, 0x42, 0x15, 0xc7, 0x3b,
  0x96, 0xca, 0x33, 0xbe, 0xcf, 0x48, 0xee, 0x3c, 0x39, 0xbe, 0x84, 0x3c,
  0x29, 0x54, 0x51, 0x3e, 0x70, 0xff, 0x1e, 0xbe, 0xa3, 0x0d, 0x5f, 0x3e,
  0x40, 0x59, 0x14, 0xbe, 0x66, 0xed, 0xe3, 0x3c, 0xbf, 0x34, 0xe3, 0x3d,
  0xfe, 0xda, 0x62, 0x3d, 0xc0, 0x96, 0x57, 0x3d, 0x0d, 0xc1, 0x2f, 0x3e,
  0xd5, 0x14, 0x04, 0x3e, 0x21, 0xdc, 0x55, 0xbe, 0xc9, 0xcc, 0xba, 0x3d,
  0x80, 0x71, 0x16, 0x3e, 0xc3, 0x16, 0x82, 0xbd, 0xf7, 0x51, 0x88, 0x3c,
  0xc3, 0x05, 0x0d, 0x3d, 0xe9, 0x1d, 0x87, 0x3d, 0xff, 0xfc, 0x20, 0xbc,
  0x63, 0xec, 0x46, 0x3e, 0xc2, 0xeb, 0x08, 0x3e, 0x08, 0x5b, 0x8b, 0xbd,
  0x06, 0x92, 0x4f, 0xbe, 0xf1, 0xcc, 0xff, 0x3d, 0x3c, 0x95, 0xc7, 0x3d,
  0x8b, 0xda, 0xa8, 0xbd, 0xb5, 0x9b, 0x32, 0x3e, 0x1f, 0xf1, 0xc4, 0x3d,
  0x9b, 0x3c, 0xd2, 0x3d, 0x62, 0x18, 0xf1, 0xbd, 0xfd, 0xd8, 0xd6, 0xbd,
  0xd2, 0xd0, 0x92, 0x3d, 0x70, 0x5c, 0x06, 0xbe, 0x0a, 0x5c, 0xee, 0xbd,
  0x5a, 0x71, 0x3b, 0x3c, 0xd0, 0x4c, 0x76, 0xbd, 0x5d, 0x39, 0xc2, 0x3c,
  0x2c, 0x8c, 0x9d, 0x3c, 0x41, 0xbd, 0x71, 0xbe, 0x72, 0xc4, 0x57, 0xbe,
  0xe0, 0x9f, 0xae, 0x3c, 0xa5, 0xb2, 0xf0, 0x3c, 0xda, 0x4d, 0xb3, 0xbe,
  0xea, 0x7f, 0x24, 0x3e, 0x81, 0x0d, 0x81, 0xbd, 0xe0, 0x6b, 0x75, 0xb9,
  0x30, 0x5c, 0x2e, 0x3e, 0x83, 0xd8, 0xf0, 0xbe, 0x5c, 0x91, 0xb7, 0x3d,
  0xf1, 0x32, 0x40, 0xbe, 0xb8, 0xac, 0x46, 0xbe, 0x3b, 0x09, 0x22, 0x3d,
  0x81, 0x6b, 0x89, 0x3e, 0xfd, 0xc4, 0x54, 0x3e, 0xa0, 0x31, 0xfa, 0xbc,
  0xb8, 0x51, 0x10, 0xbe, 0x9d, 0xb5, 0xc7, 0xbc, 0x78, 0xf0, 0x01, 0x3d,
  0xb3, 0x62, 0x82, 0xbe, 0xee, 0x50, 0x73, 0xbd, 0xe7, 0x75, 0xd9, 0x3d,
  0x98, 0x82, 0x4e, 0x3d, 0x72, 0xfe, 0xd9, 0x3e, 0xcb, 0xc2, 0x9e, 0xbe,
  0x2c, 0xf1, 0x09, 0x3e, 0x2c, 0x68, 0x27, 0x3e, 0x51, 0x8e, 0x19, 0xbc,
  0xb3, 0xeb, 0x8f, 0x3d, 0x3a, 0x56, 0x0b, 0xbd, 0xc4, 0x70, 0x5a, 0x3e,
  0x45, 0x23, 0x02, 0x3e, 0x54, 0xac, 0xab, 0xbd, 0x28, 0x07, 0x18, 0xbe,
  0x48, 0xe6, 0x86, 0xbd, 0xb1, 0x6f, 0xcf, 0xbc, 0x6d, 0xd4, 0xd7, 0xbd,
  0xa6, 0x50, 0x87, 0x3d, 0xfa, 0xe6, 0x40, 0xbd, 0xe0, 0xa2, 0x63, 0x3d,
  0xed, 0x6a, 0xf8, 0xbd, 0x01, 0x2a, 0x09, 0x3e, 0xea, 0x89, 0x49, 0x3e,
  0x4f, 0x55, 0x10, 0xbe, 0x9a, 0x0b, 0x09, 0xbe, 0xa3, 0x3b, 0x66, 0x3b,
  0xf2, 0xdc, 0x24, 0x3e, 0x11, 0x42, 0xab, 0x3d, 0x51, 0xa9, 0x49, 0xbe,
  0xc0, 0xb6, 0x38, 0x3e, 0x78, 0x47, 0x52, 0xbe, 0x12, 0x4c, 0xc8, 0xbd,
  0xa9, 0x53, 0x98, 0xbd, 0x79, 0xb7, 0xaf, 0x3c, 0xcd, 0xb5, 0x98, 0xbd,
  0x6f, 0xd9, 0x68, 0x3d, 0xed, 0x86, 0xda, 0xbe, 0x6f, 0x6a, 0xa9, 0x3d,
  0x87, 0xd6, 0xed, 0x3c, 0xe9, 0x15, 0x23, 0x3e, 0xa7, 0xd9, 0xb0, 0xbc,
  0xef, 0x09, 0x37, 0x3d, 0x95, 0xb6, 0xe2, 0x3d, 0x23, 0xd6, 0x30, 0xbe,
  0xf3, 0x36, 0x91, 0x3d, 0x09, 0xfc, 0xb5, 0x3b, 0x0b, 0x16, 0x11, 0xbe,
  0x26, 0xb0, 0x47, 0x3e, 0xf6, 0x3b, 0x7d, 0x3e, 0xed, 0xed, 0x07, 0xbe,
  0x1d, 0x53, 0x03, 0xbe, 0x18, 0x0f, 0xe7, 0x3c, 0x23, 0x87, 0x91, 0xbe,
  0x26, 0xaa, 0xe8, 0x3d, 0xec, 0x25, 0x75, 0x3c, 0x39, 0xb0, 0xa8, 0x3e,
  0x0e, 0x13, 0x4c, 0xbc, 0x2e, 0xb3, 0x9e, 0x3c, 0x99, 0xc2, 0x00, 0xbe,
  0xa1, 0x98, 0xb2, 0xbd, 0xcf, 0x21, 0x08, 0xbe, 0xbc, 0xad, 0x38, 0xbe,
  0x57, 0xc5, 0x7b, 0x3e, 0x71, 0x6d, 0x0d, 0xbe, 0xc2, 0xfe, 0x4e, 0x3e,
  0x0c, 0xa2, 0x28, 0xbd, 0x91, 0xf4, 0x13, 0xbd, 0xe6, 0xfe, 0x8b, 0x3d,
  0x5f, 0x11, 0x4a, 0x3c, 0x9a, 0x06, 0xea, 0xbd, 0xfe, 0xed, 0x21, 0xbe,
  0xb4, 0xc9, 0x1a, 0xbe, 0x13, 0x39, 0xad, 0x3d, 0x33, 0xa9, 0x64, 0xbd,
  0x65, 0xe0, 0x1d, 0xbe, 0xeb, 0xe6, 0x18, 0xbd, 0xe1, 0x82, 0x58, 0xbe,
  0x9e, 0xdf, 0x83, 0x3d, 0x00, 0x8d, 0xd0, 0x3d, 0x95, 0xf9, 0x59, 0xbe,
  0xd0, 0xa4, 0x04, 0x3d, 0xa9, 0xc8, 0x64, 0x3b, 0x94, 0x5c, 0x5f, 0xbe,
  0xce, 0x94, 0x32, 0x3d, 0xcb, 0xe5, 0xfb, 0xbd, 0xf6, 0x5b, 0x04, 0xbe,
  0x65, 0x9d, 0x47, 0x3e, 0x2f, 0xe5, 0x23, 0xbe, 0x63, 0x56, 0x25, 0x3d,
  0x02, 0x40, 0xe5, 0x3d, 0x5c, 0xb3, 0x08, 0xbe, 0xf1, 0xd0, 0x27, 0xbe,
  0xc6, 0xa7, 0x49, 0xbe, 0x18, 0x7b, 0xc1, 0x3d, 0xe0, 0xe7, 0x95, 0xbb,
  0xab, 0x8e, 0xd7, 0xbd, 0x10, 0x51, 0x1d, 0xbe, 0x88, 0x71, 0x0e, 0x3d,
  0x56, 0xde, 0x50, 0xbd, 0xd2, 0xe9, 0x6f, 0xbd, 0xe9, 0xe5, 0x99, 0xbe,
  0xc3, 0x89, 0xaa, 0x3b, 0x20, 0xed, 0xeb, 0xbd, 0x45, 0x26, 0xe5, 0x3c,
  0xae, 0xcd, 0x00, 0xbe, 0x49, 0xf1, 0x79, 0xbc, 0x42, 0x93, 0x0a, 0x3e,
  0x5e, 0x82, 0xac, 0xbb, 0xb5, 0x35, 0xce, 0xbd, 0xdd, 0x14, 0x0f, 0x3e,
  0xf9, 0xdc, 0x70, 0x3c, 0x93, 0x03, 0xac, 0xbc, 0x02, 0xf7, 0x8b, 0x3c,
  0x3d, 0xb8, 0x8b, 0x3d, 0x17, 0xa3, 0xa5, 0xbd, 0x21, 0x19, 0xe9, 0xbc,
  0x9b, 0xbe, 0x41, 0xbe, 0xdd, 0x2b, 0x92, 0x3d, 0x61, 0xdc, 0x5c, 0xbe,
  0xb0, 0x9e, 0xf1, 0xbd, 0x27, 0x63, 0x0b, 0x3e, 0xd0, 0xde, 0xb1, 0x3d,
  0xd0, 0x09, 0x61, 0x3e, 0x32, 0x49, 0x03, 0xbe, 0xa5, 0x2d, 0xf3, 0x3c,
  0x31, 0x44, 0x77, 0xbd, 0x97, 0xcf, 0x5c, 0xbe, 0xe6, 0x74, 0x03, 0xbe,
  0x8a, 0x01, 0x12, 0x3e, 0x67, 0xf7, 0x1b, 0xbe, 0x7e, 0xfc, 0xa5, 0x3d,
  0xf2, 0xef, 0x03, 0x3e, 0x07, 0x55, 0xd6, 0xbd, 0xb0, 0xe0, 0x35, 0xbe,
  0x82, 0x0e, 0x63, 0xbe, 0x48, 0x26, 0x4b, 0xbe, 0x5e, 0xe7, 0xe8, 0xbd,
  0xbe, 0xb5, 0x81, 0x3c, 0xf6, 0x37, 0xf2, 0x3d, 0xea, 0x46, 0xae, 0x3b,
  0xe2, 0xac, 0x94, 0xbe, 0x51, 0x1b, 0x87, 0xbe, 0x7e, 0x94, 0xb8, 0x3d,
  0xef, 0x9f, 0xf3, 0x3d, 0xcf, 0xf7, 0xf1, 0x3d, 0x01, 0x17, 0xd4, 0xbd,
  0xbb, 0x33, 0x7d, 0xbe, 0xe1, 0xa1, 0x03, 0xbe, 0x73, 0xfd, 0x87, 0xbd,
  0xab, 0x37, 0xe5, 0x3b, 0x85, 0xc1, 0x48, 0xbe, 0x3f, 0x9d, 0xa9, 0xbc,
  0x86, 0xdb, 0x3d, 0xbe, 0x2e, 0x9a, 0x5a, 0xbd, 0x07, 0x16, 0xba, 0x3d,
  0xec, 0x60, 0xe1, 0xbc, 0x00, 0x2c, 0x07, 0xbe, 0xd8, 0xa4, 0xf1, 0xbd,
  0xe0, 0xb9, 0x53, 0xbd, 0x28, 0x7e, 0xcf, 0xbd, 0xe0, 0xf3, 0x86, 0x3e,
  0x6a, 0x12, 0x3c, 0xbe, 0xf5, 0x9f, 0x36, 0xbd, 0x04, 0x0c, 0xcd, 0x3d,
  0x47, 0x26, 0x12, 0xbe, 0xc6, 0xce, 0xd9, 0xbd, 0x0f, 0xeb, 0x85, 0xbe,
  0x44, 0xd3, 0x15, 0xbe, 0x7e, 0x40, 0x47, 0xbe, 0x2e, 0xaa, 0x29, 0xbe,
  0x97, 0x2f, 0x5d, 0xbe, 0xcb, 0x5b, 0x24, 0xbd, 0xb8, 0x46, 0x14, 0xbe,
  0x25, 0x8e, 0x85, 0xbe, 0x21, 0xb2, 0x4e, 0xbe, 0x83, 0x60, 0x52, 0xbe,
  0xa4, 0x88, 0x00, 0x3e, 0x5e, 0x61, 0x45, 0xbe, 0xe0, 0x44, 0x15, 0xbe,
  0xb4, 0xc3, 0x70, 0xbe, 0x54, 0x9b, 0x07, 0xbe, 0xf4, 0xb6, 0x4d, 0xbe,
  0x5a, 0x1e, 0x25, 0xbe, 0xd1, 0x11, 0x14, 0xbe, 0xa1, 0x75, 0xf6, 0xbd,
  0x2d, 0xbf, 0x9b, 0xbe, 0x01, 0x5c, 0x56, 0xbe, 0x04, 0x64, 0xc1, 0x3d,
  0x53, 0x41, 0x89, 0x3c, 0xb1, 0xa1, 0xa6, 0x3d, 0xbc, 0xb7, 0x72, 0xbe,
  0x0d, 0xcb, 0xa4, 0xbd, 0x5a, 0x2f, 0x8b, 0x3f, 0x2a, 0x9e, 0x86, 0xbe,
  0xe6, 0x7c, 0x92, 0x3d, 0xdd, 0x17, 0x5f, 0x3d, 0x8e, 0x61, 0x40, 0xbe,
  0x82, 0x46, 0x88, 0x3d, 0xb0, 0x61, 0x90, 0xbd, 0x1f, 0xf8, 0xe1, 0xbd,
  0x6d, 0x3a, 0x89, 0x3c, 0x8e, 0x63, 0xc7, 0xbd, 0xb8, 0x76, 0x9b, 0x3d,
  0x5e, 0xb1, 0x5c, 0xbe, 0x87, 0xcd, 0xa2, 0xbd, 0x9a, 0x6d, 0x92, 0xbd,
  0x2b, 0x98, 0xa4, 0x3c, 0x18, 0x0b, 0xa5, 0x3e, 0x21, 0xbc, 0xec, 0x3f,
  0xe1, 0xee, 0x35, 0x3e, 0x4f, 0x10, 0x77, 0x3f, 0xe5, 0x84, 0xd2, 0x3d,
  0x75, 0x63, 0xed, 0xbe, 0x2e, 0x79, 0x34, 0xbc, 0x2f, 0x41, 0xa1, 0x3d,
  0xe4, 0x15, 0x81, 0x3e, 0xfc, 0x4f, 0xd2, 0x3c, 0x49, 0xb0, 0x0c, 0x3e,
  0x02, 0x08, 0x2d, 0xbc, 0x1b, 0x4f, 0x99, 0xbe, 0xed, 0x7f, 0xcc, 0x3c,
  0x5e, 0xce, 0xab, 0x3d, 0xab, 0x1c, 0xff, 0x3c, 0xfe, 0xb2, 0x2b, 0xbd,
  0x61, 0x1c, 0xf9, 0x3f, 0xab, 0x22, 0xce, 0x3d, 0x9c, 0x51, 0x48, 0x3f,
  0xc9, 0x7f, 0xaf, 0xbd, 0x6f, 0x90, 0xd6, 0xbe, 0xe1, 0xee, 0xd9, 0xbc,
  0xd8, 0x0f, 0xbe, 0xbd, 0xa6, 0xc7, 0xc8, 0xbe, 0x40, 0x67, 0xa0, 0xbc,
  0x64, 0x99, 0xf3, 0x3d, 0x35, 0x33, 0xb6, 0x3d, 0x52, 0x30, 0x9c, 0xbe,
  0xf0, 0x53, 0x4b, 0xbd, 0x5e, 0xd0, 0x1c, 0x3e, 0x5a, 0x6f, 0x31, 0x3e,
  0x61, 0x1d, 0x78, 0xbe, 0xbd, 0x24, 0xba, 0x3f, 0x8a, 0xac, 0x22, 0x3e,
  0xcb, 0x6c, 0x0d, 0x3f, 0xe0, 0x5d, 0xf3, 0x3d, 0x45, 0x59, 0xe5, 0xbe,
  0xf7, 0xaf, 0x01, 0xbd, 0x2a, 0xf7, 0xd4, 0xbd, 0x86, 0x1b, 0x0c, 0xbe,
  0xd3, 0x97, 0x8b, 0xbe, 0x91, 0x90, 0xe4, 0xbd, 0x1f, 0x9a, 0x75, 0x3e,
  0x58, 0xa3, 0xd7, 0xbc, 0xb5, 0x17, 0x8c, 0xbe, 0xc9, 0x38, 0x22, 0x3e,
  0xf1, 0xda, 0x88, 0x3d, 0x86, 0xbf, 0x4f, 0xbe, 0x77, 0x10, 0xc6, 0x3f,
  0xc7, 0x53, 0xa5, 0xbd, 0x87, 0x41, 0xb7, 0x3e, 0x71, 0x87, 0x5e, 0xbd,
  0x57, 0x4d, 0xd4, 0xbe, 0xfd, 0xa6, 0xca, 0xbd, 0x34, 0x6e, 0x30, 0xbe,
  0x8b, 0x2f, 0x45, 0xbe, 0xfc, 0x5c, 0x3c, 0x3d, 0x41, 0x84, 0x67, 0xbe,
  0xa7, 0xf4, 0x0c, 0xbd, 0x62, 0x12, 0xb8, 0x3e, 0x50, 0xd1, 0x56, 0xbe,
  0x2b, 0xde, 0xb4, 0x3b, 0x7a, 0x48, 0xbe, 0xbd, 0xbf, 0x7f, 0xbd, 0xbe,
  0x84, 0x89, 0x40, 0x3f, 0x74, 0xe0, 0x25, 0xbe, 0x74, 0xe0, 0x1e, 0x3c,
  0xf0, 0x7b, 0xef, 0xbd, 0x98, 0x8d, 0xd7, 0xbe, 0x60, 0x88, 0x13, 0xbe,
  0x63, 0x13, 0x8b, 0xbe, 0x92, 0x5f, 0xe9, 0xbe, 0xb9, 0x7a, 0x3e, 0xbe,
  0x7a, 0x5e, 0xde, 0xbe, 0x18, 0x1c, 0x2d, 0xbb, 0xb1, 0x3c, 0x21, 0x3e,
  0x7c, 0xd8, 0x06, 0x3d, 0xd1, 0x15, 0xf8, 0xbd, 0x03, 0xc8, 0x64, 0xbd,
  0x6d, 0xe0, 0x18, 0x3e, 0x35, 0x78, 0x94, 0xbe, 0x1f, 0x90, 0x41, 0x3d,
  0x66, 0x49, 0xb2, 0xbc, 0x04, 0xff, 0x62, 0xbd, 0x69, 0xa5, 0x82, 0xbe,
  0x78, 0xc5, 0x2d, 0x3d, 0x6f, 0x66, 0x0c, 0x3d, 0x50, 0xaa, 0x16, 0xbd,
  0x7c, 0xb5, 0x21, 0xbe, 0xb5, 0xc6, 0xed, 0x3b, 0xaf, 0x2c, 0x78, 0xbe,
  0x1d, 0xa5, 0xb6, 0x3d, 0x8f, 0x3c, 0x48, 0xbe, 0x97, 0x42, 0x14, 0xbd,
  0x2b, 0xcd, 0x48, 0xbe, 0x3f, 0x2b, 0x93, 0xbd, 0x7c, 0xf8, 0xaa, 0x3f,
  0x02, 0xf8, 0xaf, 0xbe, 0x9a, 0x05, 0x30, 0xbd, 0xa9, 0x66, 0x98, 0x3e,
  0xcb, 0xc1, 0x4e, 0xbc, 0x69, 0x82, 0x98, 0x3d, 0x16, 0xe5, 0x93, 0xbe,
  0xd5, 0xe9, 0xc2, 0xb9, 0xfe, 0x7e, 0x8a, 0x3d, 0xdc, 0x54, 0x23, 0xbe,
  0x45, 0xa4, 0xbf, 0xbd, 0xee, 0x3e, 0x38, 0xbe, 0xe3, 0xe7, 0xa5, 0xbe,
  0xda, 0x3e, 0x1b, 0xbe, 0x4a, 0xf8, 0xfc, 0xbd, 0x79, 0xda, 0xa5, 0x3c,
  0x30, 0x24, 0x13, 0x3f, 0xe6, 0x14, 0x02, 0xbf, 0xd2, 0xbb, 0x09, 0x3f,
  0xac, 0x60, 0x8c, 0x3e, 0xef, 0x67, 0x01, 0xbe, 0xcd, 0x83, 0x21, 0xbd,
  0x63, 0xb0, 0x23, 0xbe, 0x22, 0xd0, 0xd8, 0xbd, 0x51, 0x74, 0x12, 0x3d,
  0x80, 0xe9, 0xa3, 0xbe, 0xae, 0xed, 0xb8, 0x3e, 0x73, 0x04, 0xf2, 0x3d,
  0x8b, 0x22, 0xc9, 0xbe, 0x5f, 0x25, 0x1c, 0xbe, 0x1b, 0x4e, 0x66, 0xbe,
  0xd4, 0x58, 0x90, 0x3c, 0xa0, 0x58, 0x9e, 0x3f, 0x26, 0xe7, 0xee, 0xbe,
  0xa9, 0x0d, 0xeb, 0x3e, 0x54, 0x1f, 0x43, 0x3e, 0x96, 0x30, 0x85, 0xbc,
  0x59, 0x3e, 0xea, 0x3d, 0xfb, 0x3c, 0x97, 0xbe, 0x16, 0xcb, 0x03, 0xbf,
  0xe1, 0xe2, 0x0a, 0x3d, 0x8a, 0xd3, 0x0a, 0xbf, 0x52, 0xf1, 0x21, 0x3e,
  0xb3, 0x1a, 0x51, 0x3e, 0xc5, 0x92, 0xc5, 0xbe, 0x4b, 0x77, 0x3c, 0xbe,
  0x43, 0x39, 0x8f, 0xbd, 0x55, 0x07, 0xa3, 0x3e, 0xef, 0xc3, 0xa7, 0x3f,
  0xdc, 0x81, 0xc8, 0xbe, 0x13, 0x00, 0x9d, 0x3e, 0x86, 0xe0, 0x95, 0x3e,
  0x42, 0x27, 0x20, 0x3d, 0x39, 0x47, 0x2b, 0x3e, 0x28, 0x13, 0x74, 0xbe,
  0xe3, 0x4b, 0xcf, 0x3d, 0x22, 0xf6, 0xaa, 0x3d, 0xe3, 0xd7, 0x2b, 0xbe,
  0xb1, 0xa4, 0xad, 0x3d, 0xec, 0x49, 0x76, 0x3d, 0x45, 0x1f, 0xc8, 0xbe,
  0x19, 0xd1, 0xc1, 0x3d, 0x8e, 0x50, 0x4a, 0xbe, 0x51, 0x51, 0x88, 0x3e,
  0xc7, 0x62, 0x8e, 0x3f, 0xa2, 0x78, 0xfc, 0x3d, 0x8e, 0xfe, 0xae, 0x3e,
  0x86, 0x41, 0xe7, 0x3e, 0x10, 0x26, 0x06, 0xbd, 0xcf, 0xd0, 0xa5, 0x3e,
  0xdd, 0x0f, 0x8b, 0xbe, 0xf0, 0x31, 0x5c, 0x3e, 0xca, 0x47, 0x3c, 0x3d,
  0xde, 0x50, 0x26, 0xbe, 0xcf, 0xbb, 0xc6, 0xbe, 0xe5, 0x7a, 0xe8, 0xbe,
  0x08, 0x1f, 0xdd, 0xbe, 0xd7, 0x88, 0xe6, 0xbd, 0x19, 0xf8, 0xaa, 0xbe,
  0x70, 0x7e, 0x9d, 0xbc, 0xfc, 0x6f, 0xb7, 0x3f, 0x3d, 0xee, 0x81, 0x3c,
  0x8f, 0x7a, 0xac, 0x3e, 0x20, 0xad, 0x79, 0x3d, 0xd5, 0xe4, 0xa4, 0xbd,
  0x40, 0x58, 0x39, 0x3c, 0x43, 0x6d, 0xe5, 0xbe, 0x81, 0x6d, 0x0d, 0xbd,
  0x69, 0x93, 0x48, 0xbe, 0x65, 0xa2, 0xa9, 0x3d, 0x10, 0x6d, 0xd1, 0xbd,
  0xde, 0x27, 0x83, 0x3c, 0xb8, 0xf5, 0x5c, 0xbe, 0x94, 0x7b, 0x03, 0xbe,
  0x6c, 0xa0, 0x20, 0xbe, 0x46, 0x02, 0x98, 0xbc, 0x38, 0xdd, 0x07, 0xbe,
  0x3e, 0xc4, 0x1c, 0xbe, 0xb5, 0x1b, 0x31, 0x3e, 0xb2, 0x1b, 0xb3, 0x3c,
  0xde, 0xc5, 0xef, 0xbc, 0x8e, 0xff, 0x2e, 0xbb, 0x20, 0xd1, 0x83, 0xbe,
  0x5a, 0xaa, 0x6b, 0xbe, 0x5c, 0xfd, 0x67, 0xbe, 0x0a, 0x78, 0x42, 0xbe,
  0x2f, 0xfc, 0x67, 0xbe, 0xac, 0xbe, 0x4f, 0xbd, 0x50, 0xf7, 0x6a, 0xbe,
  0x43, 0x1a, 0x33, 0x3e, 0xf0, 0x48, 0x2e, 0xbe, 0xcb, 0x2f, 0xe9, 0xbd,
  0x60, 0x8c, 0xf2, 0x3f, 0x80, 0xc7, 0xff, 0xbd, 0xac, 0xfe, 0xe3, 0x3c,
  0xef, 0x42, 0xa8, 0x3e, 0x36, 0x78, 0xd0, 0xbd, 0xbe, 0x5b, 0x58, 0x3e,
  0x86, 0xe8, 0x88, 0xbe, 0xd7, 0x36, 0x81, 0x3d, 0x99, 0xc8, 0x94, 0xbe,
  0x92, 0xe2, 0x2c, 0xbe, 0x85, 0x75, 0xa0, 0xbe, 0x8a, 0xe7, 0xbf, 0xbe,
  0x0c, 0xeb, 0x92, 0xbe, 0x55, 0x47, 0x25, 0x3e, 0xd6, 0xe1, 0xa8, 0xbe,
  0x62, 0xd0, 0x0f, 0x3e, 0x8e, 0x1f, 0x9c, 0x3d, 0x88, 0xb0, 0x01, 0xbe,
  0x59, 0x4f, 0xe1, 0x3e, 0x67, 0xd2, 0x35, 0x3e, 0x59, 0x88, 0xbd, 0xbd,
  0x4e, 0x66, 0x02, 0x3e, 0xe7, 0x0b, 0x64, 0xbd, 0x58, 0xa1, 0x77, 0xbd,
  0x13, 0x46, 0xa7, 0x3d, 0x16, 0xd2, 0x82, 0x3b, 0x0f, 0x93, 0x8b, 0x3e,
  0x75, 0x3b, 0x9e, 0xbe, 0x28, 0xe5, 0x9e, 0xbd, 0x38, 0xe5, 0x3f, 0x3e,
  0xba, 0x5e, 0x03, 0x3e, 0x4e, 0x29, 0x3e, 0x3e, 0xc0, 0x4e, 0x0f, 0x40,
  0xb6, 0x44, 0x4f, 0xbd, 0xa5, 0xdb, 0xc9, 0x3e, 0x0d, 0x7f, 0x35, 0x3d,
  0x96, 0xcb, 0x04, 0xbd, 0x11, 0xb7, 0x2b, 0x3e, 0x72, 0xe1, 0xfa, 0xbb,
  0xec, 0x53, 0x43, 0xbe, 0x71, 0x22, 0x47, 0x3e, 0xb8, 0xfc, 0x1b, 0xbe,
  0xf5, 0x6a, 0x5c, 0x3e, 0xd2, 0xe6, 0x4b, 0xbd, 0xd6, 0x1e, 0x8d, 0xbe,
  0xad, 0x28, 0x15, 0x3e, 0xa6, 0x89, 0x88, 0xbe, 0xfa, 0x96, 0xf2, 0x3c,
  0x18, 0x5a, 0x17, 0x40, 0xa3, 0x7f, 0x8c, 0xbd, 0xd1, 0xf6, 0xa0, 0x3e,
  0x99, 0x1d, 0x43, 0x3e, 0x09, 0x2f, 0x0a, 0xbd, 0xb9, 0xce, 0x40, 0x3e,
  0xa6, 0xaf, 0xc8, 0xbd, 0xf0, 0x15, 0x05, 0xbd, 0x02, 0xde, 0x0b, 0x3e,
  0x46, 0x2f, 0x2c, 0xbe, 0xa0, 0xa8, 0x20, 0xbc, 0xe6, 0x96, 0x18, 0x3e,
  0xd7, 0x55, 0xd5, 0xbd, 0xce, 0xfa, 0x84, 0x3d, 0xcf, 0xb6, 0x9a, 0xbd,
  0xcd, 0x18, 0x91, 0x3e, 0x36, 0x58, 0x2b, 0x40, 0x7f, 0xfd, 0x6a, 0xbe,
  0x21, 0xea, 0x47, 0x3e, 0x65, 0xdf, 0x92, 0x3e, 0x71, 0xa3, 0x87, 0xbd,
  0xcf, 0x67, 0x21, 0x3e, 0x08, 0x7b, 0xbc, 0xbe, 0xe7, 0x9f, 0xf0, 0x3e,
  0xda, 0x30, 0x83, 0xbd, 0x4c, 0x4a, 0xf9, 0xbd, 0xa9, 0xac, 0x9c, 0xbe,
  0x5d, 0x4c, 0x16, 0x3d, 0x12, 0xef, 0x5d, 0xbe, 0x04, 0xe9, 0xde, 0x3d,
  0xda, 0xd5, 0xbc, 0xbe, 0x87, 0x39, 0xd8, 0x3d, 0xcc, 0x7d, 0xd0, 0x3f,
  0x57, 0x61, 0x9c, 0xbd, 0xa9, 0xdf, 0xce, 0x3d, 0xee, 0x32, 0xae, 0x3e,
  0x0d, 0xe5, 0xc4, 0xbd, 0x33, 0xdf, 0xd0, 0x3d, 0x0c, 0xc9, 0x8b, 0xbe,
  0x17, 0x68, 0xc3, 0x3e, 0xbb, 0xde, 0x9d, 0xbd, 0x5e, 0x45, 0x16, 0xbe,
  0xb7, 0x8b, 0xc7, 0xbd, 0xfb, 0x4c, 0xea, 0xbd, 0x5d, 0xea, 0xa6, 0xbd,
  0x92, 0x12, 0xf8, 0x3d, 0x90, 0x05, 0x19, 0xbe, 0xb7, 0x46, 0x53, 0xbd,
  0x07, 0xd3, 0x31, 0xbe, 0xe1, 0xe2, 0x28, 0xbe, 0xc8, 0xd3, 0xe6, 0x3d,
  0x69, 0x96, 0x56, 0xbc, 0xe0, 0x5d, 0xb2, 0xbd, 0xdd, 0xf8, 0xdc, 0xbd,
  0xf6, 0xc0, 0x95, 0xbe, 0xc3, 0x87, 0x1c, 0xbe, 0x85, 0x12, 0x31, 0xbc,
  0x3e, 0x06, 0xd8, 0xbd, 0x85, 0x8d, 0x41, 0xbd, 0x45, 0xf4, 0x89, 0xbe,
  0xfd, 0x61, 0x06, 0x3e, 0x93, 0x88, 0xe4, 0x3d, 0x63, 0x15, 0x5f, 0xbe,
  0x5d, 0x82, 0x2c, 0x3e, 0xf9, 0x3f, 0xcc, 0x3e, 0x8d, 0x3a, 0x3b, 0x3e,
  0xe7, 0xc8, 0x3c, 0xbe, 0x0f, 0xcb, 0x02, 0xbf, 0xc8, 0x84, 0xa2, 0x3d,
  0x92, 0x64, 0xbe, 0xbe, 0xa1, 0xff, 0x20, 0x3d, 0x19, 0x68, 0x1c, 0x3e,
  0x2f, 0x02, 0xd7, 0xbe, 0x60, 0xd1, 0x29, 0x3e, 0x4f, 0xca, 0x24, 0xbe,
  0x58, 0xb5, 0x36, 0xbe, 0x66, 0xc2, 0xd3, 0x3e, 0x95, 0x24, 0x0d, 0xbe,
  0x43, 0x8d, 0x4f, 0x3d, 0x79, 0x4e, 0x97, 0xbd, 0x2f, 0x52, 0x14, 0x3e,
  0x58, 0x02, 0xc1, 0x3d, 0xf5, 0xed, 0x9a, 0xbe, 0x21, 0xe2, 0xd5, 0xbd,
  0x12, 0x51, 0x98, 0x3d, 0xc8, 0x6e, 0x1c, 0xbe, 0xc8, 0xed, 0x19, 0x3e,
  0x60, 0x21, 0x1c, 0xbe, 0x37, 0xcf, 0x84, 0x3e, 0x69, 0xa5, 0xb7, 0x3e,
  0x32, 0x51, 0x74, 0xbe, 0x79, 0x20, 0x03, 0xbb, 0x1c, 0x7f, 0x0c, 0x3f,
  0xf3, 0x23, 0x57, 0x3d, 0xbc, 0xe0, 0x1e, 0x3d, 0xbd, 0xe9, 0xe1, 0xbd,
  0x85, 0xbf, 0x8b, 0x3e, 0x87, 0x61, 0xf9, 0xbd, 0xe7, 0x65, 0x6b, 0xbd,
  0x24, 0xe8, 0xcc, 0x3c, 0x73, 0xe0, 0x9a, 0x3d, 0x32, 0x85, 0xef, 0xbd,
  0x54, 0x5c, 0x4f, 0x3e, 0x15, 0xe6, 0x06, 0x3e, 0x72, 0xed, 0x75, 0x3e,
  0xc9, 0x4e, 0x98, 0xbe, 0x47, 0x39, 0x63, 0x3d, 0xba, 0x7d, 0xb3, 0x3d,
  0xa2, 0x9b, 0xca, 0x3e, 0x6d, 0x10, 0xf4, 0x3c, 0x34, 0x54, 0xca, 0x3b,
  0xdb, 0xb3, 0xb7, 0x3d, 0x26, 0x0f, 0x93, 0x3d, 0xb3, 0xc1, 0x2b, 0xbe,
  0x40, 0x67, 0x04, 0xbc, 0x85, 0x00, 0x81, 0xbe, 0x35, 0x7e, 0xe4, 0x3c,
  0x7d, 0x02, 0xeb, 0xbd, 0x80, 0xc0, 0x87, 0x3e, 0xb6, 0xf9, 0xd5, 0x3e,
  0xd5, 0xaf, 0x01, 0xbd, 0x86, 0x66, 0x91, 0xbd, 0x16, 0x38, 0x82, 0x3d,
  0x8d, 0x2e, 0x67, 0xbc, 0x95, 0xd4, 0x44, 0x3e, 0x8b, 0xda, 0x7b, 0xbe,
  0xc7, 0x10, 0x0b, 0xbe, 0x64, 0xa2, 0xee, 0xbd, 0xbc, 0xc3, 0x32, 0x3e,
  0x0b, 0x4a, 0x12, 0xbd, 0x67, 0xb5, 0xa2, 0xbe, 0xb2, 0x81, 0x9f, 0xbe,
  0x04, 0xa4, 0x74, 0x3d, 0x93, 0x99, 0x1f, 0xbe, 0xc1, 0x91, 0xc5, 0x3e,
  0x0a, 0x93, 0x9f, 0x3e, 0x74, 0x78, 0x11, 0xbe, 0x4c, 0x63, 0xe2, 0x3b,
  0x0d, 0x21, 0xec, 0xbb, 0x14, 0xa3, 0xa2, 0xbe, 0xf1, 0x7b, 0xd8, 0x3e,
  0xe0, 0x61, 0x31, 0xbe, 0x60, 0xe2, 0xab, 0xbd, 0x25, 0x89, 0x00, 0x3e,
  0xb8, 0x31, 0xbd, 0x3e, 0xf0, 0x4c, 0x22, 0xbd, 0x11, 0x39, 0x45, 0xbf,
  0x4a, 0x59, 0xab, 0xbe, 0xf6, 0x56, 0x7a, 0x3d, 0x40, 0xd1, 0xdf, 0xbe,
  0x25, 0x4e, 0xf7, 0x3d, 0x72, 0x30, 0xae, 0x3e, 0x2c, 0xd9, 0x26, 0x3d,
  0xfa, 0xdc, 0x12, 0x3e, 0x48, 0x31, 0x78, 0xbd, 0xd7, 0x4a, 0x9a, 0xbe,
  0xfc, 0x8d, 0x9d, 0xbc, 0xf1, 0x3b, 0xad, 0x3c, 0x9e, 0x0b, 0x22, 0x3d,
  0x7f, 0xbc, 0x64, 0xbe, 0x34, 0x26, 0x54, 0x3e, 0xc6, 0x86, 0x2a, 0xbe,
  0xb3, 0xfb, 0x87, 0xbe, 0x8d, 0xc7, 0x4b, 0x3d, 0xaf, 0xc0, 0xa3, 0xbb,
  0xb0, 0x9a, 0xe9, 0xbd, 0x33, 0x1e, 0x18, 0xbd, 0x5b, 0x1a, 0x90, 0xbe,
  0x5a, 0x0d, 0x08, 0x3d, 0x37, 0xbc, 0xfc, 0xbd, 0x8b, 0xd5, 0x1d, 0x3d,
  0x0c, 0xf2, 0xe9, 0x3d, 0x5d, 0x05, 0x31, 0xbd, 0x6d, 0x0a, 0x2d, 0x3d,
  0x36, 0x3e, 0x6d, 0x3d, 0x71, 0x01, 0xc6, 0xbb, 0x1b, 0xf2, 0x94, 0x3f,
  0x1e, 0x98, 0x67, 0xbd, 0x1f, 0x30, 0x66, 0x3d, 0x26, 0xe3, 0x87, 0x3d,
  0x63, 0x8b, 0x02, 0xbc, 0xc9, 0xc1, 0xb1, 0x3d, 0xe8, 0x3b, 0x2e, 0x3d,
  0x33, 0x9b, 0x06, 0xbe, 0xa7, 0xe0, 0x83, 0x3e, 0xf7, 0x93, 0xb3, 0xbd,
  0xe7, 0x31, 0x31, 0x3e, 0x24, 0xd1, 0x28, 0xbe, 0xa2, 0xe4, 0x41, 0xbe,
  0x51, 0x81, 0xd7, 0x3c, 0xcd, 0xc9, 0xc5, 0xbd, 0xf9, 0xd7, 0xf6, 0x3d,
  0xcb, 0x62, 0x0b, 0x3f, 0xe1, 0x76, 0x3b, 0x3d, 0xce, 0x74, 0xb8, 0x3c,
  0x79, 0xec, 0x1a, 0xbb, 0xa8, 0xda, 0xb0, 0xbb, 0xe7, 0xbb, 0x55, 0x3e,
  0x99, 0x75, 0x02, 0x3a, 0x49, 0xdd, 0x7a, 0x3b, 0xbc, 0xac, 0x5e, 0x3d,
  0x05, 0xcc, 0x5b, 0xbe, 0xed, 0x3f, 0x85, 0xbb, 0xb1, 0x19, 0x6e, 0xbe,
  0xd8, 0x09, 0xf4, 0xbe, 0xe7, 0x84, 0x61, 0x3d, 0x8b, 0xd3, 0xd7, 0xbd,
  0x88, 0x03, 0x84, 0x3d, 0xbc, 0x87, 0xd6, 0x3d, 0x27, 0xab, 0xa0, 0xbe,
  0xce, 0x93, 0x85, 0x3d, 0x9d, 0xd3, 0x17, 0x3c, 0x5f, 0x42, 0xbc, 0xbc,
  0x69, 0x9d, 0x0c, 0x3e, 0x28, 0xbb, 0x74, 0xbe, 0x87, 0xb7, 0x82, 0xbe,
  0x9a, 0xef, 0x03, 0xbe, 0x04, 0x38, 0x81, 0xbe, 0xfe, 0x5d, 0x8d, 0xbe,
  0x2d, 0x88, 0xeb, 0xbd, 0x84, 0x1d, 0x02, 0xbf, 0x84, 0x6e, 0x1d, 0xbe,
  0xe9, 0x6d, 0x62, 0xbd, 0x9d, 0x18, 0xe5, 0xbc, 0xc5, 0x5d, 0x42, 0x3f,
  0xb7, 0xed, 0xc4, 0xbe, 0x72, 0xd1, 0x83, 0x3c, 0x6a, 0x81, 0xe0, 0xbb,
  0x4f, 0x46, 0x72, 0xbc, 0x56, 0x38, 0x13, 0x3d, 0xb2, 0x2b, 0x94, 0xbe,
  0x4d, 0x87, 0x38, 0xbe, 0x59, 0xe5, 0xcf, 0xbc, 0x76, 0x7a, 0xc9, 0xbe,
  0xa6, 0x66, 0x27, 0x3e, 0x87, 0x68, 0x8b, 0x3c, 0x0b, 0x56, 0xcc, 0xbd,
  0xec, 0xed, 0x13, 0x3e, 0x0b, 0xb3, 0xa2, 0xb8, 0x3f, 0x25, 0xeb, 0x3d,
  0xcb, 0xee, 0x43, 0x3f, 0x80, 0x94, 0xbe, 0xbe, 0x58, 0x2f, 0xe4, 0x3d,
  0xdc, 0x44, 0x5c, 0x3c, 0xc0, 0xbe, 0x78, 0x38, 0x65, 0xa1, 0xef, 0x3c,
  0x0a, 0xcd, 0x20, 0xbd, 0x15, 0x1d, 0x32, 0xbe, 0xad, 0xd2, 0x90, 0x3e,
  0xc6, 0x6d, 0xa1, 0xbe, 0xe5, 0x36, 0x12, 0x3d, 0xd3, 0x73, 0x9d, 0x3d,
  0x8d, 0x3c, 0x0e, 0xbd, 0xf7, 0x34, 0x17, 0x3d, 0x1d, 0x19, 0xac, 0x3d,
  0xf2, 0x16, 0xeb, 0x3d, 0x1e, 0xd6, 0x0c, 0x3f, 0xdb, 0x3d, 0x86, 0xbe,
  0xb4, 0x49, 0x34, 0x3e, 0x55, 0x3d, 0x22, 0x3c, 0x59, 0xf9, 0x0c, 0x3c,
  0x90, 0x82, 0xe8, 0x3d, 0x4c, 0xaa, 0xbb, 0x3d, 0x9b, 0xaa, 0x37, 0xbe,
  0x4a, 0xbb, 0x8e, 0x3e, 0x78, 0x20, 0xb4, 0xbe, 0xc3, 0x8f, 0x9b, 0x3c,
  0x3b, 0x7f, 0xa2, 0x3d, 0xcc, 0xc2, 0xcd, 0xbc, 0x79, 0x1c, 0xc6, 0x39,
  0xe3, 0xda, 0x7c, 0x3d, 0x80, 0x7f, 0xcf, 0x3d, 0xcd, 0xd6, 0x01, 0x3c,
  0xd5, 0xeb, 0x25, 0x3d, 0x98, 0x31, 0xef, 0x3d, 0xa3, 0x9e, 0x1f, 0xbc,
  0x52, 0x79, 0x8a, 0xbb, 0xee, 0xd2, 0x03, 0x3d, 0x9d, 0x92, 0xa0, 0xbd,
  0x66, 0x36, 0xfc, 0x3d, 0x83, 0xd1, 0x80, 0x3d, 0xcb, 0x5b, 0x1a, 0xbe,
  0x2d, 0x08, 0x33, 0x3e, 0xb9, 0xad, 0x18, 0xbe, 0xe3, 0x2e, 0xf0, 0x3b,
  0x5c, 0x1f, 0xd0, 0xbd, 0x64, 0xb1, 0x74, 0x3e, 0xd7, 0x31, 0xef, 0x3d,
  0x5f, 0xaa, 0xf4, 0xbc, 0xa0, 0xe7, 0x8b, 0x3d, 0x21, 0xc7, 0x95, 0x3c,
  0x9b, 0xf1, 0x14, 0xbe, 0x60, 0xf5, 0x5a, 0xbd, 0x8b, 0x13, 0x80, 0x3d,
  0x2b, 0x06, 0x0d, 0x3e, 0xba, 0x6d, 0x93, 0x3d, 0x13, 0xdb, 0xc2, 0x3e,
  0xd9, 0x27, 0xe5, 0xbd, 0x6f, 0xf7, 0xa2, 0x3e, 0x91, 0xee, 0xd7, 0x3c,
  0xf6, 0x5f, 0x1c, 0xbe, 0x8c, 0xa5, 0x30, 0x3e, 0x5c, 0xf5, 0x10, 0x3e,
  0x71, 0x42, 0xd8, 0xbd, 0x8d, 0x86, 0x22, 0xbe, 0x2a, 0x37, 0x5a, 0xbd,
  0x0b, 0xf0, 0x25, 0xbf, 0xda, 0x2c, 0x19, 0xbe, 0xde, 0x70, 0x82, 0xbc,
  0xe9, 0x87, 0x43, 0x3e, 0x31, 0x07, 0xdd, 0x3d, 0x6e, 0x94, 0x6b, 0xbe,
  0x39, 0x26, 0x82, 0xbd, 0xfb, 0x8f, 0x4f, 0xbe, 0x82, 0x72, 0xf4, 0xbc,
  0x52, 0x1a, 0xa3, 0xbe, 0x5c, 0x6f, 0xc9, 0xbe, 0xe2, 0x5a, 0xa7, 0x3c,
  0x2e, 0x53, 0xa8, 0xbd, 0x18, 0x24, 0xeb, 0xbd, 0xbf, 0xd5, 0xc0, 0xbd,
  0x28, 0xa3, 0x10, 0xbd, 0x65, 0xb1, 0x0e, 0xbf, 0x1a, 0x1d, 0xc1, 0xbd,
  0xf6, 0x4a, 0xc8, 0xbb, 0x47, 0xdf, 0x31, 0xbe, 0xd8, 0xe2, 0xaf, 0xbe,
  0x51, 0x3b, 0x61, 0x3d, 0x82, 0xc8, 0xae, 0xbd, 0xf0, 0xd8, 0x52, 0x3e,
  0x54, 0x3d, 0xff, 0xbe, 0x13, 0xdb, 0xa1, 0xbe, 0xc7, 0xec, 0x26, 0xbe,
  0x6b, 0x16, 0x10, 0x3d, 0xe6, 0x99, 0x85, 0xbd, 0xf3, 0x87, 0x00, 0xbf,
  0x50, 0x66, 0x1e, 0xbe, 0xbd, 0x92, 0x44, 0x3d, 0x36, 0x5d, 0x3e, 0xbf,
  0x9e, 0xbb, 0x0f, 0xbe, 0x83, 0x02, 0x5f, 0xbb, 0xcd, 0x29, 0x4c, 0xbf,
  0x02, 0xd9, 0x6f, 0xbe, 0xfc, 0xfe, 0xc7, 0x3d, 0x44, 0x67, 0x9c, 0xbb,
  0x58, 0xd9, 0x2e, 0xbe, 0x6d, 0x66, 0xd1, 0xbc, 0x47, 0x82, 0x64, 0xbe,
  0x29, 0x5f, 0x66, 0xbe, 0xb9, 0xfe, 0x23, 0x3e, 0xca, 0x60, 0x09, 0xbd,
  0xad, 0xc5, 0xbf, 0xbe, 0x31, 0xdf, 0x2b, 0xbe, 0xdc, 0xe0, 0x47, 0xbe,
  0x7e, 0x27, 0x26, 0xbe, 0xcd, 0x50, 0x8b, 0xbe, 0x67, 0x06, 0x98, 0xbc,
  0x5d, 0xe5, 0xdc, 0xbe, 0xc5, 0x34, 0x03, 0xbe, 0x28, 0x04, 0x08, 0xbe,
  0x9e, 0x51, 0x87, 0xbe, 0xc8, 0xe2, 0x35, 0xbe, 0xbd, 0xd1, 0x59, 0xbe,
  0x63, 0x02, 0xc4, 0xbe, 0x4f, 0x04, 0xf0, 0xbd, 0xff, 0xa9, 0xa5, 0x3c,
  0x47, 0x55, 0x48, 0xbd, 0x69, 0x3b, 0xb1, 0xbd, 0xe5, 0x3c, 0x29, 0xbe,
  0x95, 0xdf, 0x2e, 0xbe, 0x14, 0x90, 0x8f, 0xbe, 0x12, 0xbf, 0x19, 0xbe,
  0x4c, 0x13, 0x50, 0xbc, 0x9f, 0xd3, 0x75, 0xbe, 0xd6, 0xee, 0x4a, 0xbe,
  0x29, 0x5a, 0xfc, 0x3d, 0x00, 0x4e, 0x39, 0xbd, 0x63, 0x75, 0x18, 0x3e,
  0x6a, 0xec, 0x49, 0xbd, 0x7f, 0xf2, 0x18, 0xbe, 0xdc, 0x94, 0x87, 0xbe,
  0x2e, 0xdf, 0x8a, 0xbd, 0xeb, 0x2a, 0x87, 0xbe, 0xcd, 0xde, 0x8f, 0xbe,
  0xd9, 0xba, 0x1e, 0x3e, 0x5a, 0xd5, 0xba, 0xbe, 0x7a, 0x3e, 0x37, 0xbe,
  0xd1, 0x01, 0xe5, 0xbb, 0xdb, 0xb3, 0xb3, 0xbc, 0x88, 0xf6, 0x90, 0xbd,
  0xe9, 0x8d, 0x81, 0xbd, 0xde, 0x25, 0x8d, 0xbd, 0x96, 0x53, 0x5d, 0xbe,
  0x70, 0x2c, 0x32, 0xbe, 0x1d, 0x00, 0x4a, 0xbe, 0xe3, 0x18, 0xb9, 0xbe,
  0x2f, 0x2b, 0x6a, 0xbe, 0xcc, 0x45, 0x1d, 0x3e, 0x70, 0x20, 0xe2, 0x3d,
  0xc4, 0x1d, 0xc6, 0xbd, 0x3b, 0x77, 0x1e, 0x3e, 0x1c, 0x3b, 0xd2, 0xbd,
  0xc2, 0xf3, 0x98, 0xbe, 0x77, 0x83, 0x31, 0xbc, 0x14, 0xd9, 0xf5, 0xbd,
  0x17, 0x19, 0xc3, 0xbd, 0x04, 0xfe, 0x47, 0xbd, 0xd1, 0x07, 0xfe, 0xbd,
  0x01, 0x38, 0xb7, 0xbd, 0xd2, 0x29, 0x53, 0xbe, 0x4b, 0x73, 0x0d, 0xbe,
  0x12, 0x02, 0x23, 0xbd, 0x71, 0x02, 0xc6, 0x3c, 0xf8, 0x5d, 0x80, 0x3b,
  0x0b, 0x2e, 0x06, 0xbe, 0x80, 0x0e, 0x9b, 0x3d, 0xf6, 0xb8, 0xea, 0x3d,
  0xf1, 0x29, 0xa2, 0xbd, 0x11, 0x23, 0x4e, 0x3d, 0xcb, 0x2f, 0xe5, 0xbc,
  0x70, 0x28, 0x33, 0xbe, 0x26, 0x84, 0xfd, 0xbd, 0xd2, 0x7c, 0x4f, 0x3d,
  0x8e, 0x6c, 0x3c, 0xbe, 0xe0, 0xad, 0x9e, 0xbc, 0x40, 0x95, 0x4a, 0xbe,
  0xca, 0x03, 0xfe, 0x3d, 0x4e, 0xe3, 0x87, 0xbe, 0x50, 0xff, 0x5f, 0xbd,
  0x32, 0x25, 0x26, 0x3b, 0x9d, 0x10, 0xd7, 0xbd, 0xa7, 0x89, 0xd1, 0xbc,
  0x05, 0xbe, 0x96, 0x3b, 0xbd, 0xae, 0xdc, 0xbd, 0xdd, 0x61, 0x42, 0xbc,
  0x33, 0x9a, 0xd1, 0xbc, 0xe6, 0xf4, 0x5d, 0xbe, 0x85, 0x47, 0x6b, 0xbd,
  0x66, 0x94, 0xa5, 0xbd, 0x77, 0x2b, 0xbc, 0xbd, 0x41, 0x3b, 0x48, 0x3e,
  0x4c, 0xf8, 0x1b, 0x3d, 0x12, 0x58, 0xb6, 0x3d, 0x70, 0x33, 0x38, 0xbe,
  0x21, 0xf8, 0x10, 0xbd, 0x67, 0x82, 0x83, 0xbd, 0xa1, 0xf6, 0x26, 0xbe,
  0xcb, 0x90, 0xf9, 0xbc, 0xc6, 0x98, 0xaa, 0x3d, 0xa1, 0x17, 0x6d, 0xbe,
  0xb7, 0x82, 0xea, 0x3d, 0x5d, 0x2d, 0xb5, 0xbd, 0x69, 0x7d, 0x9d, 0x3b,
  0x1d, 0xc6, 0x14, 0x3e, 0x88, 0x77, 0x4e, 0xbe, 0x50, 0x30, 0xb9, 0x3d,
  0x73, 0xf7, 0xa1, 0x3d, 0xe1, 0x05, 0x57, 0xbb, 0x61, 0x73, 0x22, 0xbe,
  0xa8, 0xa6, 0x18, 0xbe, 0xa1, 0x2c, 0x48, 0xbd, 0x10, 0x4b, 0x3d, 0x3e,
  0x1b, 0x58, 0x1e, 0xbd, 0x3a, 0xc5, 0x50, 0xbc, 0x6f, 0x62, 0xac, 0xbd,
  0x11, 0x22, 0xb4, 0x3d, 0x21, 0x43, 0xde, 0xbc, 0x9f, 0x2e, 0x0b, 0xbb,
  0xf8, 0x13, 0x12, 0xbe, 0xb6, 0xe6, 0xf0, 0x3d, 0x12, 0x11, 0xe5, 0x3c,
  0x09, 0x55, 0xc1, 0xbd, 0x2d, 0xf4, 0x45, 0x3c, 0xa1, 0xd8, 0x04, 0x3e,
  0xd1, 0x48, 0xb8, 0xbd, 0xfc, 0xbb, 0xe0, 0xbd, 0x87, 0x69, 0xc8, 0x3d,
  0x64, 0x96, 0x31, 0xbe, 0x74, 0x93, 0x91, 0xbb, 0x7b, 0x77, 0x53, 0xbe,
  0x93, 0x6e, 0xb6, 0xbc, 0x0e, 0xfe, 0x34, 0xbd, 0xa4, 0x39, 0x64, 0xbd,
  0x0b, 0x84, 0x22, 0x3e, 0xce, 0x8a, 0xe8, 0xbd, 0xe2, 0x3c, 0xb3, 0xbd,
  0xd3, 0xa1, 0xf0, 0xbd, 0x94, 0x45, 0xa1, 0x3d, 0xa7, 0x5a, 0x5e, 0x3d,
  0xa4, 0x52, 0x51, 0xbd, 0x1c, 0xe2, 0x30, 0xbe, 0x32, 0x42, 0x7d, 0xbe,
  0xce, 0x8e, 0x0d, 0xbd, 0xe1, 0xd0, 0x1f, 0xbe, 0xe1, 0xe8, 0x15, 0xbe,
  0x83, 0xab, 0x19, 0xbe, 0x84, 0x28, 0x03, 0xbe, 0x7e, 0x12, 0x1b, 0xbe,
  0x8f, 0xc9, 0x39, 0xbe, 0xd3, 0x1e, 0x4b, 0xbd, 0x4c, 0xd5, 0x5f, 0xbe,
  0xb8, 0x92, 0xa7, 0xbd, 0x46, 0xbe, 0x75, 0xbe, 0xe3, 0x75, 0x31, 0xbd,
  0x22, 0xa7, 0x01, 0x3e, 0xff, 0xfe, 0xa0, 0xbe, 0xbc, 0x9a, 0xd1, 0xbd,
  0x81, 0x49, 0x91, 0xbe, 0x91, 0x71, 0x02, 0xbe, 0x7e, 0x9f, 0x35, 0xbe,
  0x04, 0x71, 0xb0, 0x3d, 0xad, 0x77, 0x0e, 0xbe, 0x73, 0x35, 0x92, 0x3e,
  0xde, 0xe2, 0x53, 0x3e, 0x99, 0x8e, 0x06, 0xbe, 0x20, 0x3e, 0x4a, 0xbb,
  0x31, 0xd0, 0xd2, 0xbd, 0x4d, 0x3b, 0x2c, 0xbe, 0xbb, 0x4b, 0xf3, 0x3c,
  0x8e, 0x65, 0xf8, 0x3d, 0xd0, 0x12, 0x27, 0xbe, 0xe1, 0xca, 0x8d, 0x3e,
  0x6c, 0x80, 0x9a, 0x3e, 0x54, 0x4d, 0xae, 0xbe, 0xfa, 0x68, 0x27, 0xbe,
  0xaf, 0x4e, 0xf3, 0x3d, 0x83, 0xd9, 0x83, 0x3c, 0x08, 0x09, 0x4d, 0x3c,
  0xb1, 0xa2, 0xc6, 0x3d, 0x9a, 0x0d, 0x1b, 0x3d, 0x43, 0xd3, 0x82, 0x3c,
  0x94, 0xa6, 0xe8, 0xbc, 0xc9, 0xcc, 0x45, 0xbe, 0x5f, 0xb2, 0x1e, 0xbe,
  0x1e, 0xec, 0x2e, 0x3e, 0x87, 0xdf, 0xde, 0x3d, 0x60, 0x17, 0xb9, 0xbc,
  0x6a, 0xfb, 0xc8, 0xbc, 0xfa, 0x7a, 0x91, 0xbc, 0xd9, 0x19, 0x93, 0xbe,
  0x2a, 0xc0, 0x4a, 0xbd, 0x55, 0x08, 0xa1, 0x3d, 0x51, 0x69, 0x0b, 0x3e,
  0xeb, 0x0a, 0x66, 0xbe, 0x25, 0x40, 0xda, 0xbc, 0x71, 0xc3, 0x95, 0x3d,
  0xdf, 0xdd, 0x80, 0xbe, 0xed, 0xd6, 0x04, 0x3e, 0x1e, 0x4b, 0x22, 0xbe,
  0xa0, 0x87, 0xf8, 0x3d, 0xcc, 0x82, 0x46, 0xbd, 0xae, 0x14, 0x87, 0x3e,
  0x80, 0xb9, 0xb6, 0x3b, 0xac, 0x38, 0xaf, 0xbe, 0x08, 0xde, 0xc7, 0x3e,
  0x4e, 0x9f, 0xb1, 0x3c, 0x92, 0xd6, 0x79, 0xbd, 0xe1, 0x93, 0x54, 0xbd,
  0x46, 0xd9, 0x29, 0x3e, 0x92, 0x13, 0x0e, 0x3d, 0x68, 0x16, 0x9c, 0x3e,
  0x61, 0xd3, 0x25, 0xba, 0x99, 0x51, 0xfc, 0xbc, 0x25, 0x66, 0x35, 0x3c,
  0xf4, 0xe6, 0x2b, 0xbe, 0x12, 0x58, 0x2f, 0x3d, 0x7d, 0xa1, 0xcf, 0xbd,
  0xa8, 0xf3, 0x23, 0x3f, 0x26, 0xa2, 0x36, 0xbe, 0x06, 0x11, 0x34, 0xbe,
  0xa7, 0x3f, 0xab, 0x3d, 0xa6, 0x78, 0x0f, 0xbe, 0xc3, 0x18, 0x1b, 0xbd,
  0x29, 0x69, 0xe2, 0xbd, 0x08, 0xab, 0xd4, 0x3c, 0x84, 0x77, 0x64, 0x3e,
  0xe5, 0x92, 0x97, 0x3e, 0x3f, 0x88, 0x8c, 0x3d, 0xcb, 0x29, 0x6c, 0xbe,
  0x32, 0x35, 0xe1, 0x3c, 0x57, 0x8c, 0x5a, 0xbe, 0x43, 0x2d, 0x2e, 0xbe,
  0x81, 0x4d, 0x71, 0x3c, 0x12, 0x21, 0xee, 0x3e, 0x1e, 0x63, 0x3f, 0xbb,
  0xf4, 0x2a, 0x19, 0x3d, 0x97, 0x4e, 0xd5, 0x3d, 0x74, 0x22, 0xc1, 0xbe,
  0xb6, 0x2f, 0x2b, 0xbe, 0x6a, 0x9f, 0x18, 0x3e, 0x56, 0x2f, 0xa7, 0x3d,
  0x87, 0x43, 0x39, 0x3d, 0x58, 0x05, 0xfd, 0x3d, 0xd9, 0x93, 0xb5, 0xbc,
  0xbd, 0x03, 0x31, 0xbe, 0x99, 0x86, 0x17, 0xbe, 0x90, 0x63, 0x87, 0xbe,
  0xce, 0xfb, 0xd4, 0xbb, 0x4a, 0x94, 0x91, 0xba, 0x6f, 0xe1, 0x0d, 0x3f,
  0xd4, 0x2a, 0xe6, 0xbd, 0x17, 0xf1, 0xe4, 0x3d, 0x5e, 0x8e, 0x28, 0xbc,
  0x4c, 0xb4, 0x5a, 0xbe, 0x36, 0xa4, 0x66, 0xbd, 0x53, 0xdb, 0x6b, 0xbe,
  0xe6, 0xec, 0xa0, 0xbb, 0x9f, 0x1b, 0x9d, 0xbe, 0x39, 0xf1, 0xcd, 0x3d,
  0x3a, 0xec, 0xc3, 0xbd, 0xad, 0xea, 0x74, 0xbd, 0x97, 0x34, 0x4d, 0xbe,
  0xf5, 0x80, 0x42, 0xbe, 0x9a, 0xb1, 0x1d, 0xbe, 0x19, 0xd2, 0xd1, 0xbd,
  0x5d, 0x58, 0x0d, 0xbb, 0x3c, 0xb3, 0x29, 0x3d, 0xe6, 0xb2, 0x78, 0xbc,
  0x46, 0xfe, 0xff, 0xff, 0x10, 0x00, 0x00, 0x00, 0x05, 0x00, 0x00, 0x00,
  0x14, 0x00, 0x00, 0x00, 0x2c, 0x00, 0x00, 0x00, 0x02, 0x00, 0x00, 0x00,
  0x10, 0x00, 0x00, 0x00, 0x70, 0x00, 0x00, 0x00, 0x17, 0x00, 0x00, 0x00,
  0x73, 0x65, 0x71, 0x75, 0x65, 0x6e, 0x74, 0x69, 0x61, 0x6c, 0x2f, 0x64,
  0x65, 0x6e, 0x73, 0x65, 0x2f, 0x4d, 0x61, 0x74, 0x4d, 0x75, 0x6c, 0x00,
  0x34, 0xfe, 0xff, 0xff, 0x2a, 0xff, 0xff, 0xff, 0x04, 0x00, 0x00, 0x00,
  0x08, 0x00, 0x00, 0x00, 0xff, 0xff, 0xff, 0xff, 0x70, 0x00, 0x00, 0x00,
  0x00, 0x00, 0x0e, 0x00, 0x18, 0x00, 0x08, 0x00, 0x07, 0x00, 0x0c, 0x00,
  0x10, 0x00, 0x14, 0x00, 0x0e, 0x00, 0x00, 0x00, 0x00, 0x00, 0x00, 0x02,
  0x10, 0x00, 0x00, 0x00, 0x04, 0x00, 0x00, 0x00, 0x10, 0x00, 0x00, 0x00,
  0x2c, 0x00, 0x00, 0x00, 0x01, 0x00, 0x00, 0x00, 0x02, 0x00, 0x00, 0x00,
  0x18, 0x00, 0x00, 0x00, 0x73, 0x65, 0x71, 0x75, 0x65, 0x6e, 0x74, 0x69,
  0x61, 0x6c, 0x2f, 0x66, 0x6c, 0x61, 0x74, 0x74, 0x65, 0x6e, 0x2f, 0x43,
  0x6f, 0x6e, 0x73, 0x74, 0x00, 0x00, 0x00, 0x00, 0x9c, 0xfe, 0xff, 0xff,
  0x92, 0xff, 0xff, 0xff, 0x04, 0x00, 0x00, 0x00, 0x10, 0x00, 0x00, 0x00,
  0x7d, 0xe6, 0x2b, 0xc0, 0x40, 0x06, 0x88, 0xc0, 0x4b, 0x9a, 0xdf, 0xbd,
  0xfc, 0x66, 0x15, 0x40, 0x0a, 0xff, 0xff, 0xff, 0x10, 0x00, 0x00, 0x00,
  0x03, 0x00, 0x00, 0x00, 0x10, 0x00, 0x00, 0x00, 0x3c, 0x00, 0x00, 0x00,
  0x01, 0x00, 0x00, 0x00, 0x04, 0x00, 0x00, 0x00, 0x29, 0x00, 0x00, 0x00,
  0x73, 0x65, 0x71, 0x75, 0x65, 0x6e, 0x74, 0x69, 0x61, 0x6c, 0x2f, 0x64,
  0x65, 0x6e, 0x73, 0x65, 0x5f, 0x31, 0x2f, 0x42, 0x69, 0x61, 0x73, 0x41,
  0x64, 0x64, 0x2f, 0x52, 0x65, 0x61, 0x64, 0x56, 0x61, 0x72, 0x69, 0x61,
  0x62, 0x6c, 0x65, 0x4f, 0x70, 0x00, 0x00, 0x00, 0x60, 0xff, 0xff, 0xff,
  0x00, 0x00, 0x06, 0x00, 0x08, 0x00, 0x04, 0x00, 0x06, 0x00, 0x00, 0x00,
  0x04, 0x00, 0x00, 0x00, 0x40, 0x00, 0x00, 0x00, 0x8f, 0x80, 0x66, 0x3e,
  0x73, 0x08, 0x08, 0x40, 0x15, 0x8f, 0xa7, 0x3f, 0xf1, 0xb1, 0xcd, 0xbe,
  0x32, 0x2b, 0xf9, 0x3e, 0x81, 0xad, 0xbe, 0x3e, 0xc1, 0xce, 0x59, 0x3d,
  0x48, 0xbc, 0x0f, 0xbf, 0x7c, 0x48, 0x70, 0x3f, 0xed, 0x05, 0x99, 0x3f,
  0xab, 0xda, 0x36, 0xbe, 0x9a, 0x47, 0x2f, 0x3f, 0xb2, 0x30, 0x92, 0xbf,
  0xd5, 0x85, 0x7e, 0xbf, 0x93, 0x28, 0xe1, 0xbe, 0x43, 0x55, 0x9a, 0xbd,
  0xae, 0xff, 0xff, 0xff, 0x10, 0x00, 0x00, 0x00, 0x02, 0x00, 0x00, 0x00,
  0x10, 0x00, 0x00, 0x00, 0x3c, 0x00, 0x00, 0x00, 0x01, 0x00, 0x00, 0x00,
  0x10, 0x00, 0x00, 0x00, 0x27, 0x00, 0x00, 0x00, 0x73, 0x65, 0x71, 0x75,
  0x65, 0x6e, 0x74, 0x69, 0x61, 0x6c, 0x2f, 0x64, 0x65, 0x6e, 0x73, 0x65,
  0x2f, 0x42, 0x69, 0x61, 0x73, 0x41, 0x64, 0x64, 0x2f, 0x52, 0x65, 0x61,
  0x64, 0x56, 0x61, 0x72, 0x69, 0x61, 0x62, 0x6c, 0x65, 0x4f, 0x70, 0x00,
  0x04, 0x00, 0x06, 0x00, 0x04, 0x00, 0x00, 0x00, 0x00, 0x00, 0x0e, 0x00,
  0x14, 0x00, 0x04, 0x00, 0x00, 0x00, 0x08, 0x00, 0x0c, 0x00, 0x10, 0x00,
  0x0e, 0x00, 0x00, 0x00, 0x10, 0x00, 0x00, 0x00, 0x01, 0x00, 0x00, 0x00,
  0x1c, 0x00, 0x00, 0x00, 0x2c, 0x00, 0x00, 0x00, 0x04, 0x00, 0x00, 0x00,
  0x01, 0x00, 0x00, 0x00, 0x40, 0x00, 0x00, 0x00, 0x03, 0x00, 0x00, 0x00,
  0x01, 0x00, 0x00, 0x00, 0x0c, 0x00, 0x00, 0x00, 0x63, 0x6f, 0x6e, 0x76,
  0x32, 0x64, 0x5f, 0x69, 0x6e, 0x70, 0x75, 0x74, 0x00, 0x00, 0x00, 0x00,
  0xfc, 0xff, 0xff, 0xff, 0x04, 0x00, 0x04, 0x00, 0x04, 0x00, 0x00, 0x00
};

unsigned int model_tflite_len = 12384;// Fill the int in `src/model.cc` here